<unk>	0
<s>	0
</s>	0
'	-2.99996
,	-3.11191
́	-3.3998
.	-3.57466
▁a	-3.91529
▁nə	-3.9476
▁de	-4.27723
▁pɑ	-4.37146
▁et	-4.51779
▁gɑ	-4.55955
▁bɑ	-4.57124
̌	-4.58118
▁e	-4.59754
▁la	-4.618
▁lə	-4.62922
s	-4.83628
▁yə	-4.85605
▁le	-4.89058
:	-4.89265
̀	-4.99039
;	-5.0227
▁tə	-5.02916
▁	-5.09075
▁po	-5.10593
▁m	-5.10983
▁les	-5.18079
▁qui	-5.19326
▁à	-5.21647
▁bi	-5.23452
▁pu	-5.24405
▁l	-5.29272
▁que	-5.31499
▁gɔ	-5.33099
▁il	-5.35834
-	-5.39724
▁pa	-5.41358
m	-5.47092
▁vous	-5.4899
▁wap	-5.50502
̂	-5.5347
▁en	-5.56538
ŋ	-5.56807
▁Si	-5.67871
▁Et	-5.68977
▁pyə	-5.69899
▁d	-5.71002
tə	-5.7113
▁des	-5.72507
▁pɔ	-5.78123
?	-5.78518
▁sɔ	-5.79812
▁A	-5.80436
o	-5.82448
▁dans	-5.83632
▁ne	-5.85955
▁mo	-5.8972
▁ywə	-5.92384
▁du	-5.92592
▁est	-5.92902
▁é	-5.94618
▁lui	-5.94705
▁n	-5.97026
▁ba	-5.98493
▁qu	-5.98499
▁ghɔm	-6.00142
▁gɔm	-6.02872
▁par	-6.04199
▁ghə	-6.04312
▁o	-6.04463
▁pour	-6.06709
▁s	-6.08745
▁Yeso	-6.10341
▁je	-6.12448
e	-6.12576
▁Dieu	-6.15229
▁nous	-6.16008
nyə	-6.16413
▁guŋ	-6.16543
▁un	-6.20039
▁ce	-6.21548
c	-6.21663
a	-6.22921
’	-6.23158
il	-6.23396
▁pú	-6.25755
▁dit	-6.2704
▁piŋ	-6.282
▁awɛ	-6.29831
▁bɔ	-6.30572
▁kɑ	-6.31925
▁yɔ	-6.34325
▁Jésus	-6.34813
est	-6.35698
▁pas	-6.35989
▁nwə	-6.36264
ʼ	-6.37226
▁biŋ	-6.37766
▁wə	-6.39851
▁shyə	-6.41293
▁au	-6.43001
▁gə	-6.44715
▁point	-6.45243
▁se	-6.48615
▁E	-6.48713
▁cwə	-6.48996
▁ave	-6.50908
▁myə	-6.55028
▁hɑ	-6.55542
▁leur	-6.56168
▁sa	-6.56397
▁une	-6.58446
▁tsʉ	-6.59761
▁wɔ	-6.60171
▁bə	-6.60199
▁mais	-6.60521
▁zhyə	-6.60765
▁da	-6.64979
▁dzə	-6.69585
▁pə	-6.7214
▁bɑwə	-6.74118
▁mu	-6.76344
▁comme	-6.77378
▁sur	-6.77588
▁si	-6.78668
▁Po	-6.79687
▁son	-6.80136
▁nthʉm	-6.81382
▁Seigneur	-6.83568
▁Nə	-6.83721
▁été	-6.8387
▁lɑ	-6.8404
▁Mais	-6.84152
▁sont	-6.85828
▁ghɔ	-6.86938
!	-6.8708
▁ta	-6.87709
k	-6.88959
▁ka	-6.89488
▁fa	-6.90346
▁jɔ	-6.91236
▁Cyəpɔ	-6.91963
▁cyə	-6.94969
t	-6.95596
▁ceux	-6.95696
▁á	-6.97174
▁celui	-6.97598
▁Kristo	-6.97923
é	-6.98211
▁Car	-6.98263
▁C	-6.98303
▁kə	-6.99694
▁Wap	-6.99766
un	-6.998
▁thə	-7.01535
▁tu	-7.01616
▁tous	-7.02165
▁aussi	-7.02681
nt	-7.05148
▁tsə	-7.05164
▁yap	-7.07542
▁fɑ	-7.07865
▁ě	-7.07943
▁dzʉ	-7.08866
▁ǎ	-7.10525
▁Il	-7.12364
▁donc	-7.12379
▁dɑ	-7.12387
▁c	-7.12524
▁nɑ	-7.12637
▁dyə	-7.12855
▁plus	-7.13543
▁ses	-7.1359
ils	-7.1499
▁car	-7.16106
▁aux	-7.16449
▁M	-7.19172
▁kwa	-7.1921
▁choses	-7.19256
ai	-7.1977
▁était	-7.19853
otre	-7.21001
▁moi	-7.21644
▁gaə	-7.22712
en	-7.22851
▁tsyə	-7.25673
▁lě	-7.25752
▁vɔk	-7.2591
▁yu	-7.25962
▁siŋ	-7.2763
u	-7.28053
▁y	-7.28285
▁Da	-7.30035
r	-7.3011
p	-7.30272
▁ŋ	-7.30469
▁j	-7.31119
ce	-7.31615
tant	-7.3259
▁dəŋdəŋ	-7.33199
▁tout	-7.34849
▁shəŋ	-7.35604
▁vʉ	-7.36301
dzʉ	-7.37873
fin	-7.38641
▁Je	-7.38682
▁nthəm	-7.38817
▁Le	-7.38822
▁cəcɑ	-7.40016
▁nyənyɔ	-7.41034
▁Tə	-7.41813
▁avait	-7.42174
▁Mo	-7.43293
▁ont	-7.43795
▁Gɑ	-7.44411
▁tyɛ	-7.44452
▁vo	-7.44896
▁mco	-7.44946
▁mon	-7.45624
▁te	-7.46067
▁même	-7.46106
▁fait	-7.46374
▁pɔmnəŋ	-7.47364
▁mghɛ	-7.47877
▁Or	-7.49553
▁wáp	-7.50961
▁jyə	-7.51454
▁Yudea	-7.52095
▁ces	-7.52242
▁ayant	-7.52285
y	-7.52957
er	-7.53059
cette	-7.53846
▁me	-7.54194
ont	-7.54758
▁D	-7.56453
▁elle	-7.56654
▁ma	-7.57031
▁pɑpuŋ	-7.57092
▁shwə	-7.57401
▁də	-7.5779
▁kwi	-7.5854
▁jʉ	-7.59169
ɔ	-7.59749
▁Christ	-7.59983
▁wɔk	-7.60115
▁shɑ	-7.60424
▁homme	-7.6102
▁bəŋ	-7.61176
▁Pɑ	-7.61674
▁mú	-7.61767
▁pǒ	-7.62299
▁sera	-7.62885
ant	-7.63017
▁Alors	-7.63892
▁cwəlɔ	-7.64235
▁dəm	-7.6481
vous	-7.65554
▁cela	-7.66234
▁ni	-7.66554
à	-7.68503
▁toutes	-7.68584
▁və	-7.69105
▁gɛ	-7.69142
▁yɔk	-7.69509
ə	-7.69741
▁Paul	-7.69848
▁eux	-7.69977
▁piŋnthʉm	-7.7053
▁bǎ	-7.71214
▁yəŋ	-7.71887
▁O	-7.72388
▁dis	-7.72808
▁fut	-7.73165
▁ko	-7.73304
▁suis	-7.73389
▁soit	-7.73674
ait	-7.74455
▁leurs	-7.74503
▁ou	-7.74795
▁P	-7.7492
▁jour	-7.75033
elon	-7.75995
▁étaient	-7.76227
▁Père	-7.7764
▁pá	-7.77747
▁toute	-7.7793
▁terre	-7.78039
▁cwəpuŋ	-7.7875
▁ntʉ	-7.78877
▁Zhwenyə	-7.79119
▁mɔ	-7.79541
▁S	-7.80157
▁t	-7.80447
▁tsɔ	-7.80528
▁map	-7.80751
▁hommes	-7.81221
es	-7.81424
▁kɛbəŋ	-7.81813
▁Mu	-7.81983
▁devant	-7.82295
on	-7.82322
▁Tá	-7.82546
▁pfʉ	-7.82592
▁ya	-7.82746
▁gwyə	-7.83469
▁faire	-7.84117
Christ	-7.84265
ez	-7.84409
▁La	-7.84427
▁peuple	-7.8489
▁foi	-7.85004
▁quand	-7.85686
▁ju	-7.85915
▁disciples	-7.86181
▁Pu	-7.87173
▁bu	-7.87506
▁encore	-7.8773
▁bien	-7.8794
▁parole	-7.88564
▁Polo	-7.88952
▁yɑ	-7.89325
▁contre	-7.89764
▁loi	-7.89865
▁vie	-7.90071
▁Les	-7.90241
▁tʉɔ	-7.90449
ent	-7.91291
▁v	-7.91353
▁nəŋ	-7.91818
▁monde	-7.91889
▁après	-7.92442
▁təm	-7.92614
homme	-7.94774
▁deux	-7.94788
▁Fils	-7.94901
▁mfa	-7.94975
une	-7.95118
nyəŋ	-7.95238
▁ŋkho	-7.95853
▁toi	-7.95863
▁N	-7.96757
n	-7.96834
▁autres	-7.96904
▁ŋkwi	-7.97196
▁mjwǐ	-7.97235
▁dɔlɔ	-7.98607
▁être	-7.98753
▁fo	-7.99266
▁mort	-7.99733
▁où	-8.00019
sans	-8.00607
▁bəm	-8.00721
▁sɔmywə	-8.00743
▁vérité	-8.01668
▁maison	-8.02
▁ton	-8.02006
▁pɑwə	-8.02751
▁sɛ	-8.02827
▁ŋwɛnyə	-8.03113
▁wu	-8.03664
Esprit	-8.03879
▁zhwə	-8.04173
▁non	-8.04375
▁frères	-8.04514
▁Ils	-8.0454
it	-8.04583
èrent	-8.04903
même	-8.05059
▁mə	-8.05723
ment	-8.05778
▁mnwə	-8.06512
▁femme	-8.0667
▁pourquoi	-8.06957
▁fʉ	-8.07122
▁Bi	-8.0716
▁2021	-8.07452
i	-8.0759
▁Ŋ	-8.07936
▁jap	-8.07966
▁pɑkhʉ	-8.07973
▁gho	-8.08015
▁sə	-8.08058
▁mghɔm	-8.08105
▁ŋkhe	-8.08107
▁tʉm	-8.08172
le	-8.08665
▁L	-8.08715
▁ku	-8.09175
▁ciel	-8.09459
▁avez	-8.09482
▁tʉ	-8.10054
▁jusqu	-8.10479
fa	-8.10539
ons	-8.10727
▁mhɔ	-8.12035
▁temps	-8.12543
▁Pɛtrɔ	-8.13066
▁Que	-8.13244
▁Pyə	-8.13602
▁enfants	-8.13852
▁cʉ	-8.13997
▁plusieurs	-8.14122
▁cu	-8.14158
▁Ta	-8.14658
z	-8.15242
▁dəŋ	-8.15252
▁gùŋ	-8.15289
▁ji	-8.1589
▁corps	-8.1681
▁fyɛ	-8.16815
▁disant	-8.16886
▁grande	-8.17478
▁là	-8.17692
▁tyə	-8.17951
ux	-8.18815
▁həŋtə	-8.19034
▁sɔmmo	-8.19064
aient	-8.19145
▁En	-8.19201
▁nom	-8.19314
▁jours	-8.19665
▁yʉ	-8.20726
▁rien	-8.21268
▁Pierre	-8.21269
▁Dyə	-8.2128
▁-	-8.21794
▁gʉ	-8.22342
▁tso	-8.22422
▁on	-8.22912
là	-8.22985
▁zhwenyə	-8.23012
▁(	-8.2319
▁répondit	-8.23574
▁ghu	-8.2358
▁shwyɛ	-8.24159
▁cause	-8.2478
tu	-8.24786
nwə	-8.2506
▁Guŋ	-8.25342
▁vers	-8.25389
▁grand	-8.25913
▁mɔk	-8.26219
▁Juifs	-8.26638
▁aŋgəle	-8.26734
▁J	-8.26982
▁ŋwa	-8.27042
elle	-8.27349
▁gu	-8.27767
▁pɑpúŋ	-8.27773
▁personne	-8.2779
▁pó	-8.28356
▁dirent	-8.29173
▁autre	-8.29294
▁tá	-8.29354
▁père	-8.29421
▁cəŋtə	-8.29782
▁zhi	-8.30203
▁fils	-8.30262
▁Ba	-8.3046
▁Yohane	-8.30827
▁pəmtə	-8.30916
▁gloire	-8.32726
▁Pú	-8.34026
avaient	-8.34451
▁De	-8.34559
▁Jean	-8.34939
▁Simon	-8.35975
▁Pa	-8.36062
▁cwɔ	-8.36112
▁mes	-8.36455
ci	-8.36984
▁to	-8.3735
▁nthʉ	-8.37487
▁ville	-8.3787
▁ainsi	-8.3798
▁avons	-8.38929
▁Yerusalɛm	-8.39329
ŋtə	-8.39661
▁quelqu	-8.39753
l	-8.39868
▁Cameroun	-8.4001
▁Jérusalem	-8.40014
)	-8.40067
▁giŋ	-8.40172
▁dé	-8.40559
▁chair	-8.40712
▁byap	-8.40722
▁nthi	-8.40734
▁tisuŋ	-8.42099
▁məjyə	-8.42109
▁entre	-8.42164
▁Ne	-8.42523
▁bo	-8.42688
▁témoignage	-8.42801
▁Vous	-8.42802
tre	-8.42853
▁ŋkhuŋ	-8.43352
▁Qui	-8.43566
▁furent	-8.44226
▁Mú	-8.44252
ǒ	-8.4436
▁royaume	-8.44944
▁va	-8.45803
▁morts	-8.46174
▁sɔm	-8.46477
▁êtes	-8.46529
▁shɛ	-8.46773
go	-8.46903
▁fə	-8.46971
ra	-8.47485
▁maintenant	-8.47878
▁té	-8.48218
▁shə	-8.48284
▁grâce	-8.4859
▁lieu	-8.48608
▁Pɔ	-8.48726
▁go	-8.49403
▁msɛ	-8.49472
▁mnyə	-8.49672
cǎ	-8.4969
▁tsap	-8.50144
▁ŋkwɔ	-8.50905
▁fà	-8.51941
▁ŋkhəm	-8.52
▁cet	-8.52332
▁Nwə	-8.52466
▁mfɑ	-8.52766
▁péché	-8.53225
▁bɛ	-8.53358
▁mkwə	-8.53374
▁ghiŋ	-8.53382
▁fi	-8.53928
▁nos	-8.54038
▁Cwə	-8.54076
▁sommes	-8.54079
▁ké	-8.54092
▁mtsʉ	-8.5416
▁part	-8.54202
▁reçu	-8.54267
▁batə	-8.54335
▁do	-8.54362
▁frère	-8.54821
▁Abraham	-8.54954
▁lɔ	-8.55394
▁Nous	-8.55641
▁Nəfo	-8.55642
▁donné	-8.56153
▁lo	-8.56194
▁sous	-8.56411
▁quelque	-8.56703
▁nyə	-8.56944
▁justice	-8.5722
▁jʉm	-8.57532
▁cə	-8.57619
▁tsɑ	-8.58053
▁nthɔm	-8.58126
▁temple	-8.58866
▁sorte	-8.58908
▁mcyə	-8.58924
▁vient	-8.59185
▁Ce	-8.59442
▁écrit	-8.59577
▁yá	-8.60179
▁venu	-8.6034
▁David	-8.6054
▁dire	-8.60938
▁pé	-8.60982
▁tak	-8.61267
▁nyaptə	-8.61426
ayant	-8.61639
mêmes	-8.62124
▁Un	-8.6223
▁voix	-8.62247
▁eut	-8.62458
▁ê	-8.62525
▁seul	-8.6294
▁mtiŋ	-8.63159
▁vu	-8.639
lu	-8.64186
▁mɑ	-8.64189
▁kuŋ	-8.6441
▁avoir	-8.64417
▁hwitə	-8.64851
▁entendu	-8.65479
▁B	-8.65545
▁bvə	-8.65738
▁quelques	-8.65755
▁Pour	-8.65798
▁Sɔ	-8.66304
▁yɛ	-8.66367
près	-8.66486
▁Kwa	-8.66639
puis	-8.66739
▁vint	-8.66742
nous	-8.66951
as	-8.6718
▁trois	-8.67538
▁Celui	-8.68442
▁peut	-8.6851
mtə	-8.69303
▁pwɔk	-8.69405
▁cœur	-8.69498
ɔlɔ	-8.6997
▁wɑ	-8.70263
▁gens	-8.70282
▁Kɑ	-8.70287
▁kɔ	-8.70356
▁yam	-8.70371
▁seront	-8.70461
de	-8.70578
▁Ka	-8.706
▁sɔmbʉə	-8.7122
▁pǔ	-8.71292
▁Yə	-8.71382
▁main	-8.71412
▁mains	-8.7201
▁sang	-8.72324
▁mère	-8.72395
la	-8.724
ront	-8.72407
▁mer	-8.7248
être	-8.72488
▁Tu	-8.72551
yɛ	-8.72923
▁bwɔk	-8.73118
▁paix	-8.73158
toi	-8.73516
▁ca	-8.73554
▁fois	-8.74093
▁Saint	-8.74265
▁rend	-8.74314
était	-8.74421
▁ŋkhə	-8.74514
wə	-8.7472
▁Farisai	-8.75045
▁voici	-8.75054
▁dhə	-8.75097
▁áá	-8.75127
jʉ	-8.75474
▁puŋ	-8.75553
▁co	-8.76012
conqu	-8.76057
▁mbɛ	-8.76198
lə	-8.76572
▁bí	-8.76633
▁beaucoup	-8.77015
▁joie	-8.77018
▁mis	-8.77069
▁Ywə	-8.78022
▁mku	-8.78237
▁dəŋdzə	-8.79064
rmi	-8.79393
▁ŋkha	-8.79673
▁shwɔ	-8.79993
▁mama	-8.80384
ation	-8.80543
entre	-8.81069
▁Biya	-8.81094
▁venir	-8.81101
▁shu	-8.81135
▁yeux	-8.81143
▁chose	-8.81339
▁tes	-8.81398
chez	-8.81532
▁ai	-8.81883
▁ŋa	-8.82004
▁sept	-8.82128
oient	-8.82546
autre	-8.82844
▁Cu	-8.83272
▁cɛ	-8.8351
▁bíŋ	-8.83578
▁pieds	-8.84341
▁envoyé	-8.84528
que	-8.84884
▁bap	-8.85065
▁mgham	-8.85088
▁chacun	-8.85311
▁République	-8.85314
▁disaient	-8.85395
▁ici	-8.85419
eux	-8.85559
ès	-8.86458
▁pris	-8.86778
▁kam	-8.869
▁uns	-8.87008
▁paroles	-8.87379
▁cieux	-8.87502
▁lɑpʉə	-8.87571
▁mcwə	-8.87648
▁assis	-8.87781
avez	-8.87816
▁ti	-8.88076
▁gi	-8.88089
▁faut	-8.88348
▁ans	-8.88358
▁tɑ	-8.88621
▁ɔ	-8.88639
▁nu	-8.88699
▁puissance	-8.88931
á	-8.89012
▁prophètes	-8.89246
▁dɔ	-8.89421
▁ŋkhap	-8.89807
▁voyant	-8.909
▁mtyɛ	-8.90998
▁pays	-8.91001
ɛ	-8.91227
re	-8.91581
▁pi	-8.91632
▁appelé	-8.91983
▁milieu	-8.92017
2	-8.92091
▁bon	-8.9244
▁mthə	-8.92449
▁faites	-8.9249
▁cəŋ	-8.92545
▁bó	-8.93185
▁bvɔk	-8.93189
▁voir	-8.93386
▁G	-8.93502
▁T	-8.93529
▁K	-8.93656
▁shəŋtə	-8.93659
si	-8.9403
▁ghəm	-8.94282
▁péchés	-8.94348
▁seulement	-8.94384
▁aucun	-8.95314
pendant	-8.95323
ient	-8.9551
or	-8.95815
▁alla	-8.95915
▁miŋ	-8.96083
▁Puis	-8.96367
▁esprit	-8.96422
▁propre	-8.96751
S	-8.96857
▁â	-8.97006
▁premier	-8.97178
▁mal	-8.97283
▁connu	-8.97322
▁principa	-8.97685
x	-8.97854
shɛ	-8.9797
▁Gentils	-8.97971
▁charité	-8.97971
▁Ghɔm	-8.98072
▁garde	-8.98317
▁tɔm	-8.98371
eau	-8.98616
▁ghap	-8.98898
▁kwɔ	-8.99108
▁Israɛl	-8.99205
▁feu	-8.99205
▁nuit	-8.99241
▁Yɔ	-8.99302
▁disait	-8.99359
▁ŋwak	-8.99416
▁Gɛ	-8.99448
▁pʉə	-8.99714
▁sacrificateurs	-8.99739
▁mi	-8.99789
ion	-9.0029
▁Moïse	-9.00455
▁déjà	-9.00455
▁Voici	-9.00457
▁Mosɛ	-9.00461
▁pǐŋ	-9.00491
▁soyez	-9.00501
▁tiŋnyə	-9.00514
▁pharisiens	-9.00529
▁œuvres	-9.00678
▁hɔ	-9.01346
▁peu	-9.01614
▁Kaməlûn	-9.01721
▁kaktʉɔ	-9.01721
▁Elle	-9.01761
▁aura	-9.01805
▁anges	-9.02319
Évangile	-9.0234
▁pe	-9.02435
▁gwɔ	-9.02949
▁lumière	-9.03003
▁pfə	-9.03013
▁porte	-9.03371
iez	-9.03379
▁ŋkhuŋnyə	-9.03393
ement	-9.03443
▁chemin	-9.03469
au	-9.03676
lǎ	-9.03681
cwyɛ	-9.03846
▁Quand	-9.04303
▁gɛfa	-9.04419
▁fit	-9.04484
▁roi	-9.04828
nu	-9.04962
▁zhəŋ	-9.05144
ma	-9.05252
▁bɛnyəpɛnyə	-9.05618
▁jɛ	-9.0569
▁p	-9.0582
▁présent	-9.05868
je	-9.06162
▁ghɔmnwə	-9.06193
▁kəm	-9.06357
▁jwi	-9.06592
▁mcʉ	-9.06759
te	-9.06888
▁«	-9.06951
▁pɔk	-9.0701
▁bǔ	-9.07012
▁Pə	-9.07124
▁ŋkwa	-9.07283
▁né	-9.07314
mu	-9.07374
ywə	-9.07376
▁Qu	-9.07667
mi	-9.07799
▁elles	-9.08214
Église	-9.08297
▁volonté	-9.08302
▁shwɔppʉə	-9.08314
▁nouveau	-9.08315
▁jə	-9.08331
▁vinrent	-9.08391
ó	-9.08398
gwya	-9.08425
▁zhyənwə	-9.08615
▁sɔk	-9.0865
ri	-9.0885
▁serviteur	-9.08887
▁prophète	-9.08889
▁parler	-9.09029
▁Mon	-9.09441
ù	-9.09584
▁Comme	-9.09647
▁douze	-9.09672
▁sujet	-9.09672
▁bvʉ	-9.09737
▁msəŋwi	-9.0975
▁Par	-9.09751
▁msya	-9.0978
▁vit	-9.09796
▁yáp	-9.09839
mo	-9.09874
▁aussitôt	-9.10147
▁effet	-9.10235
kə	-9.10373
▁comment	-9.10578
ě	-9.1066
▁Galilea	-9.11061
▁mourir	-9.11061
▁pfɑ	-9.11061
▁quatre	-9.11164
▁donne	-9.11409
▁donna	-9.1141
avait	-9.12317
▁ghəghʉɔ	-9.12492
▁sʉəsʉə	-9.12519
▁mkamsi	-9.1264
dyə	-9.12801
▁rendu	-9.12886
uns	-9.12899
rent	-9.13069
ǔ	-9.13382
▁manger	-9.13568
h	-9.13883
▁Barnabas	-9.13898
▁bouche	-9.13898
▁kě	-9.13899
▁toujours	-9.13899
▁ŋkwinthɛ	-9.13903
irent	-9.13946
ka	-9.14024
d	-9.14045
▁kəŋnyə	-9.14071
▁bonne	-9.1457
ʉ	-9.14571
▁Yakop	-9.15347
▁nthé	-9.15375
▁ke	-9.1544
ŋnyə	-9.15887
▁mɔktə	-9.16174
és	-9.16228
les	-9.16229
▁lé	-9.16515
▁demeure	-9.16615
▁mka	-9.16794
▁mkwɔ	-9.16831
▁ywətsʉ	-9.16918
▁avant	-9.17415
▁tap	-9.17498
mfɑ	-9.17671
▁pû	-9.17886
g	-9.18061
▁pouvoir	-9.18311
▁Shɑ	-9.18314
▁mzhwenyə	-9.18362
▁grâces	-9.18373
b	-9.18379
▁lorsque	-9.18486
▁savez	-9.18651
avons	-9.18962
gwyə	-9.19149
is	-9.19206
▁BIYA	-9.19831
▁mit	-9.19841
▁jɑ	-9.19851
▁cyətə	-9.19935
▁mcò	-9.19998
▁eu	-9.20791
▁cru	-9.21257
▁fais	-9.21298
▁há	-9.21369
▁Maria	-9.21378
▁ressuscité	-9.21386
▁apôtres	-9.21566
moi	-9.21633
to	-9.21845
▁maître	-9.2185
ions	-9.2198
C	-9.22142
▁femmes	-9.22272
ée	-9.22475
▁bəmtə	-9.22738
▁vis	-9.2283
▁Sata	-9.22894
▁souverain	-9.22932
▁Bɑ	-9.22938
▁cwəpùŋ	-9.2295
▁shʉ	-9.22956
▁ghəŋ	-9.22996
▁nombre	-9.23006
▁mhɔnwə	-9.23006
▁kwɛ	-9.23008
▁peur	-9.23032
▁es	-9.23506
▁na	-9.23531
avoir	-9.23621
ur	-9.23695
pʉə	-9.24041
▁W	-9.24376
▁Galilée	-9.24471
▁Pilato	-9.24514
▁Maître	-9.24514
▁hwə	-9.2452
E	-9.24546
▁hɔnwə	-9.24547
▁nthak	-9.24581
▁F	-9.24817
▁prison	-9.25007
▁r	-9.25569
▁sais	-9.25658
▁pwa	-9.25777
▁hə	-9.25785
Â	-9.26125
▁sabbat	-9.26127
▁shya	-9.26128
▁Président	-9.26133
esprit	-9.27137
dzə	-9.27266
thə	-9.27567
▁sha	-9.27725
▁msə	-9.2776
▁ntho	-9.27856
▁kwitə	-9.27927
▁fin	-9.28189
fə	-9.28207
▁ceci	-9.2827
▁Au	-9.28472
▁celle	-9.28953
pna	-9.28965
▁pɑpʉə	-9.29102
▁ǒ	-9.29218
▁ange	-9.29229
▁ŋkhamsi	-9.29454
▁scribes	-9.29466
▁»	-9.29597
rez	-9.29709
ô	-9.29789
▁pères	-9.29874
▁juste	-9.30188
▁fruit	-9.30333
▁pain	-9.30777
▁Dzʉ	-9.31128
▁jamais	-9.31132
▁Marie	-9.31148
▁doit	-9.31199
▁pap	-9.3122
me	-9.31246
▁shwɔp	-9.31261
áp	-9.31441
ette	-9.31519
ê	-9.31599
▁bú	-9.32209
guŋ	-9.32272
▁enfant	-9.32279
▁heure	-9.32312
I	-9.32514
in	-9.32558
▁tɔ	-9.32712
▁veux	-9.3291
▁mkətú	-9.33009
▁fort	-9.33193
▁saints	-9.33327
▁"	-9.33449
▁arrivé	-9.33588
▁mǔ	-9.33601
▁ŋkh	-9.33636
▁nthə	-9.33858
▁É	-9.34207
▁quoi	-9.34361
▁éternelle	-9.34596
▁permis	-9.34606
▁troisième	-9.34607
▁siècles	-9.34851
▁livre	-9.34851
▁Afin	-9.34994
▁mò	-9.35265
▁gɔmnwə	-9.35441
▁dites	-9.35547
▁pierre	-9.35561
▁fille	-9.35621
▁nɔm	-9.36236
▁donner	-9.36336
▁Pourquoi	-9.36392
▁zhʉ	-9.36422
▁foule	-9.36536
▁byanyə	-9.3654
nd	-9.3676
▁mkɔ	-9.36784
A	-9.3688
▁1	-9.36926
▁parle	-9.37163
ange	-9.37246
▁sacrificateur	-9.37427
▁jɔmyɔ	-9.37777
us	-9.37803
▁ait	-9.37944
û	-9.38011
v	-9.38028
▁mghətso	-9.3821
▁prit	-9.3821
▁Pɑkhʉ	-9.38213
▁Herode	-9.38232
▁trouvé	-9.38418
▁shù	-9.38461
▁personnes	-9.3874
▁trône	-9.39227
ie	-9.39312
▁dwɔ	-9.39325
nɑ	-9.39449
fà	-9.39559
▁fiŋ	-9.39765
▁re	-9.39766
▁Ch	-9.39995
▁sí	-9.40002
▁Ainsi	-9.40062
▁multitude	-9.40062
▁sagesse	-9.40066
▁crainte	-9.40074
▁tête	-9.41146
Israël	-9.41305
▁quelle	-9.41491
▁fɛ	-9.41732
▁cya	-9.41811
▁mtʉ	-9.41873
▁Chef	-9.41949
▁ŋkwɑ	-9.4195
▁ghyɛ	-9.41953
▁tuŋdyə	-9.41955
▁Bǎ	-9.41967
▁alors	-9.41967
▁nthɔk	-9.42009
▁muywə	-9.42114
▁mille	-9.42131
▁kən	-9.42794
▁nouvelle	-9.4307
▁dernier	-9.43082
▁près	-9.43294
▁lorsqu	-9.43652
ya	-9.43723
hui	-9.43731
Ě	-9.43872
▁colère	-9.43872
▁doctrine	-9.43872
▁nthinthi	-9.43875
▁Pilate	-9.43903
▁Myə	-9.43934
▁demande	-9.4403
jyə	-9.44516
ú	-9.44596
autres	-9.44686
▁dehors	-9.44743
elles	-9.44918
an	-9.45435
eur	-9.45694
▁salut	-9.45816
envers	-9.45823
▁puis	-9.45827
▁désert	-9.45833
▁gwɛ	-9.45833
▁tsǒ	-9.45833
▁kha	-9.45907
▁sortit	-9.45913
▁gʉə	-9.45991
▁mwɔ	-9.46158
"	-9.46188
▁mso	-9.46276
▁mta	-9.46431
▁Fo	-9.46467
▁f	-9.46473
▁ləŋdzə	-9.46589
▁jú	-9.46654
▁di	-9.46852
▁serviteurs	-9.46979
f	-9.47068
▁lá	-9.47097
O	-9.47236
▁wa	-9.47475
▁Mfɑ	-9.47826
▁ténèbres	-9.47832
▁pwɔ	-9.47833
▁Amen	-9.47872
ch	-9.48064
▁ně	-9.48203
▁R	-9.48362
▁grands	-9.48458
ir	-9.4852
ne	-9.48579
bvʉ	-9.4859
▁ló	-9.48696
Etat	-9.48736
▁besoin	-9.49052
▁juge	-9.49132
▁digne	-9.49133
▁yɔm	-9.49502
/	-9.49849
▁pyap	-9.49872
▁miséricorde	-9.49873
▁nuŋpwɔ	-9.49874
▁Tsʉ	-9.49877
▁fût	-9.49887
▁bapnɑ	-9.4989
▁petit	-9.49897
▁anciens	-9.50077
▁droite	-9.50121
▁jam	-9.50153
▁démons	-9.50226
▁I	-9.50538
▁mkam	-9.50779
pa	-9.50926
fo	-9.51461
▁vue	-9.51691
ou	-9.51844
▁2020	-9.51957
▁nthʉɔtʉɔ	-9.51958
▁kwɑ	-9.51959
▁cɔmmtso	-9.5196
▁Mghɛ	-9.51961
▁Joseph	-9.51964
▁mkwɛnyə	-9.51977
▁cha	-9.5201
▁manière	-9.5212
▁kúŋ	-9.52215
▁jeune	-9.52227
▁petits	-9.5276
▁ó	-9.52931
▁connaître	-9.5324
▁ŋkwitə	-9.53543
yant	-9.53584
▁nommé	-9.53626
li	-9.53631
▁entra	-9.53674
▁Pɔmnə	-9.5409
▁mfɑmfɑ	-9.54113
▁gwyəgwyə	-9.54141
▁mtʉɔ	-9.54275
alités	-9.54297
▁gǒ	-9.54339
▁ŋkhʉ	-9.54356
▁mcwɔ	-9.54483
▁cour	-9.54515
▁jwǐ	-9.5465
▁nations	-9.54707
▁coupe	-9.55233
▁jugement	-9.5545
▁montagne	-9.55458
el	-9.55952
▁cǎ	-9.56055
▁nəfo	-9.56113
▁Jacques	-9.56258
▁brebis	-9.56258
▁résurrection	-9.56258
▁mpfə	-9.56259
▁mkwi	-9.56263
▁sort	-9.56367
▁so	-9.56434
▁mzhəŋ	-9.56594
▁pfʉə	-9.5696
M	-9.57272
▁mguŋ	-9.57331
▁semblable	-9.57685
▁synagogue	-9.57686
ǎ	-9.57979
lɔ	-9.5803
▁Ma	-9.58048
▁mari	-9.58292
í	-9.58301
où	-9.58337
▁sinagogə	-9.5848
▁Judée	-9.58481
▁Yuda	-9.58481
▁tsǔ	-9.58493
▁prenant	-9.58508
▁ŋkhɛ	-9.58534
▁faisait	-9.58544
ta	-9.58547
quel	-9.58566
▁ŋkáp	-9.58585
ât	-9.58613
▁ŋkə	-9.58683
▁nthamtə	-9.58699
▁of	-9.58747
1	-9.58899
▁mcuŋ	-9.58942
▁trouva	-9.58954
▁vrai	-9.59235
▁mcwyɛ	-9.59546
▁má	-9.59768
▁in	-9.59873
▁promesse	-9.59946
▁reste	-9.60422
▁mwɑ	-9.60753
▁famille	-9.60753
▁Dôgùŋ	-9.60754
▁kwyəpnyə	-9.60754
▁répondirent	-9.60755
▁parlait	-9.60779
▁ŋkhəŋnyə	-9.6078
▁Cependant	-9.60789
▁vin	-9.6081
▁kwə	-9.60986
ŋlá	-9.61087
▁miracles	-9.61091
▁savons	-9.61111
yez	-9.61175
▁lequel	-9.61534
▁partie	-9.61728
▁lǎ	-9.61793
▁nam	-9.61837
▁cɔ	-9.61981
▁ntə	-9.62086
▁barque	-9.62244
▁entré	-9.62265
▁sépulcre	-9.62271
▁fidèle	-9.62275
▁table	-9.62305
gaə	-9.62468
▁cinq	-9.62768
▁Wɔ	-9.63043
▁Philippe	-9.63088
▁quel	-9.6317
▁sim	-9.63289
▁kətú	-9.63311
▁ouvres	-9.63331
▁aller	-9.63332
▁savoir	-9.63447
▁arriva	-9.63542
▁sá	-9.63573
▁tsɔk	-9.6372
yə	-9.63785
jyədyə	-9.63859
▁prie	-9.6403
▁twɔ	-9.64113
▁pains	-9.64429
▁force	-9.64667
▁service	-9.64684
ùŋ	-9.64933
▁ŋkwɛ	-9.65244
▁viendra	-9.65391
se	-9.65393
▁Filipo	-9.6546
▁Yosɛp	-9.6546
▁connaissance	-9.6546
▁laquelle	-9.6546
▁ensuite	-9.65468
▁Actu	-9.65485
▁Bɛ	-9.65496
▁vɔ	-9.65622
▁ghamtə	-9.6566
▁bʉə	-9.65772
▁ŋkhamtə	-9.6578
lo	-9.65914
▁pɑnyə	-9.66122
▁aucune	-9.66226
ɑ	-9.66364
▁face	-9.66489
▁première	-9.67046
▁lit	-9.67107
▁b	-9.67161
▁jɔm	-9.67249
jwǐ	-9.674
â	-9.67465
▁gwa	-9.67854
▁bî	-9.67892
▁mghǎm	-9.67898
▁devait	-9.679
▁appris	-9.67932
▁faisant	-9.67977
▁envoya	-9.67987
▁nthɛ	-9.68013
▁yǔ	-9.6802
▁jeté	-9.68109
▁dú	-9.68184
▁fer	-9.68425
▁tamtə	-9.68466
▁gəm	-9.68768
▁gɔl	-9.69539
cɛ	-9.69563
▁appelés	-9.69591
argent	-9.69754
pɔ	-9.69802
▁ghi	-9.6993
▁fá	-9.70013
▁cœurs	-9.70017
▁pù	-9.70033
w	-9.70209
▁buŋ	-9.70243
▁bʉ	-9.70386
▁patience	-9.70399
▁Sabat	-9.70399
▁Tous	-9.70399
▁khɑ	-9.70402
▁lusi	-9.70412
▁tútə	-9.70454
▁tadyə	-9.70583
▁mgho	-9.70612
▁Tout	-9.70779
▁mnə	-9.70802
▁sois	-9.70809
▁Dan	-9.70854
lâ	-9.71002
▁vivant	-9.71283
ò	-9.71451
▁cours	-9.71595
N	-9.71981
▁bête	-9.72151
ût	-9.72268
wim	-9.72302
▁15	-9.72495
íŋ	-9.72654
▁faits	-9.72678
▁bya	-9.72833
▁reçoit	-9.72963
▁peine	-9.72973
▁commencement	-9.72979
▁kwinthɛ	-9.73012
▁parlé	-9.73112
ŋdzə	-9.73159
▁moins	-9.73196
▁cú	-9.73419
▁font	-9.73538
nə	-9.73889
tions	-9.73892
▁rendre	-9.74165
tte	-9.74271
▁celles	-9.74309
▁chef	-9.74777
▁langue	-9.74802
▁place	-9.74839
ire	-9.74892
▁don	-9.75316
▁kó	-9.75596
▁contraire	-9.75596
▁ghakgo	-9.75601
▁prendre	-9.75604
▁gamtə	-9.75611
▁aujourd	-9.75637
▁gúŋ	-9.75675
▁Y	-9.75693
▁donnera	-9.75753
▁nthʉɔ	-9.7583
▁ministère	-9.7585
▁serait	-9.75993
tsə	-9.76399
▁mcʉm	-9.76448
▁4	-9.76831
▁ouvert	-9.769
▁sé	-9.76967
▁lwɔ	-9.77112
▁droit	-9.7715
▁fʉtə	-9.77421
sə	-9.77501
▁commandement	-9.77519
▁établi	-9.77596
autorité	-9.77661
▁venus	-9.7811
▁venue	-9.78176
sieur	-9.78263
▁Ghəghʉɔ	-9.78298
▁Présidence	-9.78299
▁bapgu	-9.78307
▁Églises	-9.78307
▁Satan	-9.78359
▁DE	-9.78374
▁bvo	-9.78385
▁Gɔ	-9.78416
▁dix	-9.7847
ité	-9.78488
uŋ	-9.78549
▁loin	-9.78563
▁vais	-9.78596
ŋwi	-9.78597
▁Və	-9.78629
▁cent	-9.79203
▁dyɛ	-9.79265
▁mange	-9.79369
▁pɔmtə	-9.79419
▁kamtə	-9.79471
▁nation	-9.79747
▁fera	-9.79853
T	-9.80268
Ml	-9.80411
É	-9.80426
ku	-9.80454
▁zhə	-9.80659
▁jwə	-9.80921
Ǎ	-9.81074
▁croit	-9.81075
▁hwítə	-9.81075
▁très	-9.81075
▁plutôt	-9.81075
▁visage	-9.81082
▁cwanwə	-9.81084
▁thəsì	-9.81087
aux	-9.81103
▁fête	-9.81113
▁Fə	-9.81157
▁fasse	-9.81168
▁fəfa	-9.81192
▁discours	-9.81207
tá	-9.81559
▁parla	-9.81577
▁ci	-9.81734
al	-9.81765
▁dá	-9.81919
▁fəŋ	-9.81979
▁plein	-9.81995
▁nuŋ	-9.82079
té	-9.82618
▁saint	-9.82989
▁sʉ	-9.83235
étais	-9.8326
amour	-9.83284
heure	-9.83302
▁mcu	-9.83568
▁bʉɔ	-9.83727
▁lu	-9.8385
pe	-9.83878
▁boire	-9.83924
Agneau	-9.83932
▁donnée	-9.83933
▁Əŋ	-9.83933
▁Silas	-9.83941
▁leŋfo	-9.83963
▁mgu	-9.83969
).	-9.84004
▁voulu	-9.84074
▁haut	-9.84445
▁prières	-9.84543
▁mtá	-9.84566
▁Mə	-9.84584
▁2	-9.84601
▁10	-9.84643
▁ŋkham	-9.84796
▁gɔpna	-9.84852
▁tant	-9.85081
dire	-9.8527
▁met	-9.85608
mbi	-9.86457
▁connais	-9.86525
ǝ	-9.86696
▁mois	-9.86758
▁Tâdyə	-9.86873
▁crucifié	-9.86873
▁présence	-9.86873
▁suivant	-9.86873
▁tâdyə	-9.86874
▁20	-9.86878
▁longtemps	-9.86882
▁Dzə	-9.86885
▁lɔmdyə	-9.86886
antal	-9.86913
▁kodyə	-9.87012
▁kʉ	-9.87063
▁Comment	-9.8707
▁mgùŋ	-9.87287
kpə	-9.87418
▁mû	-9.87579
▁passé	-9.87593
▁13	-9.87936
▁derniers	-9.88099
ine	-9.88663
▁ga	-9.88747
▁ministre	-9.8909
▁g	-9.89104
▁kú	-9.89632
Écriture	-9.89899
aimés	-9.89903
▁charge	-9.89904
▁croix	-9.89904
▁pfyə	-9.89904
▁tʉɔdəŋ	-9.89904
▁tribunal	-9.89907
▁diable	-9.89907
▁Yaoundé	-9.89919
▁pəpúŋ	-9.8992
▁mviŋ	-9.89933
▁LA	-9.89957
▁veut	-9.89959
▁moment	-9.89978
▁pʉ	-9.89987
▁mnɔm	-9.90114
▁membres	-9.9022
▁police	-9.90237
va	-9.90248
▁regarde	-9.90546
▁19	-9.90679
▁yo	-9.90709
▁seule	-9.9074
▁allait	-9.90842
▁máp	-9.91114
▁pɑjwǐ	-9.91523
▁bonnes	-9.91588
▁faite	-9.91655
hors	-9.91737
pfʉə	-9.91885
▁6	-9.91936
aime	-9.92188
▁tam	-9.92421
▁mfʉ	-9.92628
▁Ministre	-9.93029
▁côté	-9.93029
▁oreilles	-9.93031
▁mukhʉ	-9.93042
▁mtadyə	-9.93046
▁H	-9.93048
▁shwé	-9.93054
▁ensemble	-9.93059
▁bǐ	-9.93084
▁pʉɔ	-9.93089
▁ja	-9.93092
▁Hérode	-9.93241
▁Saulo	-9.93263
▁disent	-9.93396
▁telle	-9.93415
▁quoiqu	-9.93575
nam	-9.93692
də	-9.93804
▁trouve	-9.94109
▁25	-9.94539
shwə	-9.94894
ère	-9.9491
▁rois	-9.94951
▁esprits	-9.95126
▁suivi	-9.95288
▁parc	-9.95416
▁disciple	-9.95474
▁8	-9.95514
▁quant	-9.95609
ordre	-9.9561
Abraham	-9.95627
▁âme	-9.95697
kɔ	-9.95795
▁ŋkwyə	-9.95902
úŋ	-9.95919
▁V	-9.95971
▁biens	-9.95998
▁mghɔ	-9.96006
▁ŋwɛ	-9.96061
ais	-9.96197
Ê	-9.96254
▁Egipto	-9.96254
▁Grikia	-9.96254
▁croyez	-9.96254
▁travers	-9.96254
▁conscience	-9.96255
▁soleil	-9.96255
▁parents	-9.96277
▁səso	-9.96292
▁lieux	-9.96311
▁kwyə	-9.96318
▁demeur	-9.96347
▁ŋkhɔ	-9.96351
▁nɔk	-9.96484
▁Non	-9.96563
▁yaə	-9.96593
▁shi	-9.96786
▁su	-9.96797
▁serai	-9.96807
▁bɑnyə	-9.96872
▁passer	-9.96909
▁Ou	-9.96948
▁demanda	-9.96965
18	-9.97171
▁commandements	-9.9721
im	-9.97251
▁mettre	-9.97451
▁lâ	-9.97738
▁mdyə	-9.98033
da	-9.98101
▁On	-9.98291
▁servir	-9.98322
ɔmmo	-9.98443
cwɔ	-9.98525
▁nthu	-9.98939
əŋdəŋ	-9.99267
ombien	-9.99518
▁autorité	-9.99527
▁César	-9.99577
▁tomba	-9.99582
▁dernière	-9.99588
▁lendemain	-9.99588
▁élevé	-9.99588
▁Malheur	-9.99588
▁Dəŋdzə	-9.99593
▁Kasa	-9.99593
▁vigne	-9.99596
▁ŋkwishwə	-9.99624
▁nthiŋnyə	-9.99644
▁16	-9.99644
▁Wə	-9.99685
▁Ya	-9.99705
▁yú	-9.99709
▁vivre	-9.99875
▁fəŋnyə	-9.99968
▁km	-9.99969
▁mghə	-10.0008
▁demander	-10.0023
▁demeurer	-10.0029
▁leva	-10.0034
▁tà	-10.0036
ʉɔ	-10.0045
▁ferme	-10.0056
▁données	-10.007
▁sǒ	-10.0071
lá	-10.0077
ance	-10.01
▁mà	-10.0127
▁yám	-10.0133
ans	-10.0142
▁devenu	-10.0146
enfant	-10.0156
▁annoncer	-10.0165
▁Sa	-10.0168
0	-10.0183
▁pleine	-10.019
▁7	-10.0218
ter	-10.0218
▁victime	-10.0223
sse	-10.0224
dessus	-10.024
▁guéri	-10.0259
▁kɛbə	-10.0266
▁vent	-10.0269
▁kɛ	-10.0304
▁Nazarɛt	-10.0304
▁Heureux	-10.0304
▁confiance	-10.0304
▁kyɛ	-10.0304
▁également	-10.0304
▁mesure	-10.0304
▁Wɑ	-10.0305
▁crurent	-10.0306
▁portant	-10.0306
▁Elia	-10.0307
▁mieux	-10.0308
▁Ghə	-10.0308
bɛ	-10.0311
▁yɑpʉə	-10.0312
▁virent	-10.0312
▁puisque	-10.0318
▁wɛ	-10.0321
▁zhí	-10.0327
▁mtə	-10.0333
eurs	-10.034
▁appelle	-10.035
▁villes	-10.0363
▁bá	-10.0372
▁sein	-10.0385
▁Me	-10.04
▁connaît	-10.044
▁justes	-10.0476
9	-10.0505
âmes	-10.051
cùŋ	-10.0516
ni	-10.0531
▁comprend	-10.0549
▁Se	-10.0556
êtes	-10.0574
▁Sɔm	-10.0576
▁produit	-10.0578
▁Bo	-10.0579
▁malade	-10.0582
▁voie	-10.0582
▁baptisé	-10.0583
▁sauvé	-10.0588
espérance	-10.0597
(	-10.0598
▁combat	-10.0615
▁ntha	-10.0616
di	-10.0632
▁ntwɔ	-10.065
vo	-10.0655
▁liberté	-10.0661
▁prix	-10.0661
▁règne	-10.0661
▁ŋkhaktʉɔ	-10.0661
▁postérité	-10.0661
▁Roma	-10.0663
▁DES	-10.0664
▁premièrement	-10.0666
▁ghǎm	-10.0666
▁nthap	-10.0668
▁viens	-10.0669
▁ntham	-10.067
▁eurent	-10.0671
əŋthə	-10.0674
ji	-10.0675
▁jo	-10.0689
▁pɔptə	-10.069
▁pauvres	-10.0694
▁píŋ	-10.0696
▁Bə	-10.0706
▁Ces	-10.0724
int	-10.0731
▁malades	-10.0741
ǔŋ	-10.0749
sɔ	-10.0751
ng	-10.0754
entendis	-10.0758
▁seconde	-10.0762
▁forte	-10.0777
▁con	-10.0781
wɔ	-10.079
▁pla	-10.0793
tɔ	-10.0807
K	-10.0811
▁sorti	-10.0837
aimé	-10.0866
▁jeta	-10.0889
▁dəmc	-10.089
▁prière	-10.0943
▁livré	-10.095
▁descendu	-10.0955
▁Saints	-10.0961
▁mauvaise	-10.0971
▁yəmtə	-10.1003
▁kǒ	-10.103
occasion	-10.1031
▁Jacob	-10.1031
▁Prenez	-10.1031
▁juillet	-10.1031
▁commanda	-10.1031
▁semence	-10.1031
▁Paska	-10.1031
▁mləŋtə	-10.1031
▁proche	-10.1031
▁ŋkâp	-10.1032
▁poste	-10.1032
▁ŋghə	-10.1035
▁fǎ	-10.1036
▁tɑpe	-10.1037
▁tó	-10.1043
▁faim	-10.1043
▁fíŋ	-10.1045
▁mpə	-10.1045
▁rempli	-10.1046
▁aurait	-10.1054
▁entendre	-10.1054
▁tɛ	-10.106
riminelles	-10.1062
▁Judas	-10.1066
▁aime	-10.1073
▁Ceux	-10.1078
▁vêtements	-10.1087
▁témoins	-10.1093
▁ô	-10.1109
▁3	-10.1112
▁tuŋ	-10.112
▁kuŋnyə	-10.1132
▁rapport	-10.1135
▁mfo	-10.1143
▁giŋnyə	-10.1153
▁jeunes	-10.1174
▁khʉ	-10.1223
at	-10.1248
ît	-10.1252
▁prier	-10.1256
▁ferai	-10.1277
▁descend	-10.1287
né	-10.1294
ǐ	-10.13
pfʉ	-10.1323
▁lettre	-10.1335
▁environ	-10.1346
H	-10.1351
è	-10.1351
mkəcɔk	-10.1366
▁glorifie	-10.1374
▁cas	-10.1382
bi	-10.139
▁tutə	-10.1401
▁bwa	-10.141
▁travail	-10.1412
▁commun	-10.1416
▁Amɛn	-10.1416
▁Makedonya	-10.1416
▁Service	-10.1416
▁autour	-10.1416
▁damnyəlamnyə	-10.1416
▁mystère	-10.1416
▁mtisuŋ	-10.1416
▁Kamərun	-10.1416
▁ntó	-10.1416
▁allèrent	-10.1416
▁yɛluŋ	-10.1416
▁bientôt	-10.1417
▁verrez	-10.1417
▁Yʉ	-10.1417
▁pě	-10.1419
▁auparavant	-10.142
▁kuso	-10.142
▁monəŋ	-10.142
▁mkwinthɛ	-10.1422
▁tǎdyə	-10.1422
▁firent	-10.1423
▁bò	-10.1428
▁ŋka	-10.1435
▁ennemis	-10.1442
▁mŋwə	-10.1444
▁soldats	-10.1445
▁Gho	-10.1445
▁paknyə	-10.1459
▁gardé	-10.1467
ns	-10.1467
tes	-10.1469
▁kəŋ	-10.1472
autel	-10.1481
▁mcùŋ	-10.15
▁sauvés	-10.1502
ia	-10.1507
▁désir	-10.1513
age	-10.1517
ve	-10.1522
▁ghaptə	-10.1523
▁langues	-10.1533
tion	-10.1538
▁forces	-10.1546
▁cherche	-10.1548
ha	-10.155
▁Gh	-10.1556
▁mdzə	-10.1564
ées	-10.1573
tsʉ	-10.1578
▁dira	-10.158
▁lesquel	-10.1594
▁púa	-10.1607
▁perdu	-10.1611
▁voit	-10.1667
▁msa	-10.1691
▁sauver	-10.1721
▁prend	-10.1731
▁vois	-10.174
▁haute	-10.1742
▁nthɔ	-10.1761
3	-10.177
▁Saul	-10.1786
▁gham	-10.1788
▁mauvais	-10.1789
▁porter	-10.1804
mes	-10.1811
▁Frère	-10.1816
▁Nazareth	-10.1816
▁Timotio	-10.1816
▁baptême	-10.1816
▁défense	-10.1816
▁mlwa	-10.1816
▁Sauveur	-10.1816
▁condamnation	-10.1816
▁mkətwɔk	-10.1816
▁toucha	-10.1816
▁répondant	-10.1817
▁mɔkcʉ	-10.1818
▁Tɑ	-10.1818
▁gra	-10.1819
▁bɛtsə	-10.1819
▁matin	-10.1819
▁crime	-10.1821
▁yɑtá	-10.1821
▁jəmtə	-10.1821
▁bwadzʉ	-10.1822
▁pʉɔtʉm	-10.1827
▁jám	-10.1832
▁épouse	-10.1834
▁nthuŋ	-10.1845
▁monté	-10.1847
▁sens	-10.1858
aire	-10.187
ptə	-10.1881
▁sya	-10.1887
▁espérance	-10.1888
▁compte	-10.1889
▁jʉɔ	-10.1891
▁mar	-10.1891
▁nɔmtə	-10.1894
▁jʉɔjʉ	-10.19
▁monta	-10.1903
▁dó	-10.1934
▁entrer	-10.1935
▁sortir	-10.1951
▁gwi	-10.1952
▁repos	-10.1956
tǝ	-10.1968
lúŋ	-10.1983
▁remplis	-10.1987
tèrent	-10.2064
gu	-10.2068
▁mjʉ	-10.2077
▁premiers	-10.2084
pə	-10.2085
▁pro	-10.2098
▁donnerai	-10.2129
5	-10.2145
▁véritable	-10.2147
▁gouverneur	-10.2148
▁riche	-10.2151
▁annoncé	-10.2156
wa	-10.2163
ève	-10.2179
ins	-10.2179
lé	-10.2214
▁périr	-10.2228
▁mise	-10.223
▁2019	-10.2232
▁Lazare	-10.2232
▁Personne	-10.2232
▁Samaria	-10.2232
▁Timothée	-10.2232
▁centenier	-10.2232
▁nécessaire	-10.2232
▁particulier	-10.2232
▁pwǎ	-10.2232
▁Conseil	-10.2232
époux	-10.2233
▁Saluez	-10.2233
▁fɔ	-10.2233
▁Toutefois	-10.2234
ureau	-10.2236
mmtso	-10.2238
▁allé	-10.2238
▁venait	-10.2239
▁nthá	-10.224
8	-10.224
▁juin	-10.2242
▁jak	-10.2247
▁tsó	-10.2247
▁alliance	-10.2253
▁jó	-10.2254
hǎ	-10.2255
▁kwítə	-10.2259
▁entend	-10.228
tiez	-10.2292
▁amis	-10.2297
▁glorifier	-10.2298
▁núŋ	-10.2309
▁baptisés	-10.2326
▁ŋkhənyə	-10.2327
▁actions	-10.2332
wà	-10.2339
▁ré	-10.234
▁accompli	-10.2341
▁h	-10.2352
4	-10.2357
gh	-10.2365
▁synagogues	-10.2384
▁or	-10.2404
▁dǒ	-10.2434
na	-10.2436
▁grandes	-10.245
▁bɔɔ	-10.2493
▁petite	-10.2495
shyə	-10.2529
ave	-10.2536
▁envoyés	-10.2551
mnyə	-10.2564
▁tribu	-10.2567
▁Général	-10.2574
▁Juif	-10.2589
▁glorifié	-10.2598
▁coup	-10.26
honneur	-10.2602
cwə	-10.2621
▁mkə	-10.2621
nyɔ	-10.2624
▁œuvre	-10.2636
vient	-10.2647
▁vienne	-10.2661
▁circoncis	-10.2666
▁malheur	-10.2667
▁Esaya	-10.2667
▁plaisir	-10.2667
▁pouvait	-10.2667
▁quarante	-10.2667
▁reçoive	-10.2667
▁Ananias	-10.2667
▁tâmbɛ	-10.2667
▁commença	-10.2667
▁peuvent	-10.2668
▁cherchaient	-10.2669
▁hya	-10.267
î	-10.2671
tenant	-10.2671
▁raison	-10.2672
▁Oui	-10.2672
▁bɔkbɔ	-10.2676
ge	-10.2677
▁répandu	-10.2677
▁Sidon	-10.2683
▁pɛ	-10.2688
▁nthe	-10.2692
ba	-10.2693
▁dame	-10.2704
▁pensées	-10.2712
▁jette	-10.272
▁cɔk	-10.2727
▁aurez	-10.2727
agit	-10.274
▁Lorsqu	-10.2741
▁aveugles	-10.2744
▁gʉɔ	-10.2755
achant	-10.2778
▁gǔ	-10.2825
▁appelée	-10.2831
j	-10.2834
ure	-10.2843
kù	-10.2858
▁tsa	-10.294
ghɔm	-10.2943
kǔ	-10.2955
▁chargé	-10.2971
▁second	-10.2994
urant	-10.3006
po	-10.3012
▁prochain	-10.3016
▁parabole	-10.3037
▁démon	-10.3048
7	-10.3055
▁certain	-10.3058
shù	-10.3059
étaient	-10.3062
▁aveugle	-10.3067
▁tué	-10.3078
ras	-10.3092
▁affaire	-10.3101
▁shɔkcɔ	-10.3111
▁vaisseau	-10.312
ͻ	-10.3122
▁enseignait	-10.3122
▁plainte	-10.3122
▁récompense	-10.3122
▁secret	-10.3122
▁Allez	-10.3122
▁Macédoine	-10.3122
▁Parole	-10.3122
▁Hommes	-10.3122
▁mangé	-10.3122
▁recevoir	-10.3122
▁repentance	-10.3122
▁dessein	-10.3122
▁autrefois	-10.3122
▁kùŋ	-10.3122
▁nourriture	-10.3122
▁gɛvɔk	-10.3123
▁voulez	-10.3123
▁levain	-10.3123
▁circoncision	-10.3123
▁lors	-10.3124
▁Mfɑmfɑ	-10.3124
▁pô	-10.3125
▁Cwəlɔ	-10.3126
▁shwa	-10.3127
▁jwɔp	-10.3127
▁pur	-10.3128
▁partis	-10.3129
mò	-10.3136
▁enseignant	-10.3138
▁càm	-10.3139
▁levé	-10.3139
▁yɑwə	-10.314
▁mtso	-10.3141
▁mghʉɔ	-10.3142
▁sages	-10.3153
sǐ	-10.3153
après	-10.3164
▁nté	-10.3166
▁porté	-10.3171
▁égard	-10.3183
▁pútə	-10.3213
▁garder	-10.3219
▁Son	-10.322
lui	-10.3226
▁Fa	-10.3231
stam	-10.3232
əŋ	-10.325
ssent	-10.3252
mə	-10.3274
▁Esprit	-10.3277
▁30	-10.3293
▁trouver	-10.3293
▁marche	-10.3294
gùŋ	-10.3304
lɑ	-10.3308
▁mena	-10.3317
▁tʉmnyə	-10.3328
▁fruits	-10.3341
aie	-10.3341
ig	-10.3343
▁pî	-10.3345
▁kwak	-10.336
▁portes	-10.3412
▁sì	-10.3431
▁présenta	-10.344
tenait	-10.3441
▁So	-10.3455
▁Marti	-10.3472
so	-10.3484
▁lié	-10.349
F	-10.3496
um	-10.3504
▁(0	-10.3509
▁trésor	-10.3512
▁politique	-10.3513
▁choisi	-10.3517
▁agréable	-10.3518
▁témoin	-10.3519
abord	-10.3529
▁signe	-10.3531
épée	-10.3532
affaire	-10.3534
égard	-10.3534
▁accomplie	-10.3538
▁mzhə	-10.3554
▁nth	-10.3563
▁pak	-10.3565
▁sait	-10.3575
▁pria	-10.3584
écria	-10.3588
▁honte	-10.3595
▁Ensuite	-10.3598
▁Isak	-10.3598
▁fornication	-10.3598
▁travaux	-10.3598
▁Ŋwâlǎ	-10.3598
▁couché	-10.3598
▁Dôguŋ	-10.3598
▁pitié	-10.3598
▁manteau	-10.3598
▁Camus	-10.3598
▁race	-10.3598
UI	-10.3598
▁reconnu	-10.3599
▁2018	-10.3599
▁souvent	-10.3601
▁habitant	-10.3601
▁bureau	-10.3604
▁kwishyə	-10.3604
▁pìŋ	-10.3607
▁Sur	-10.3611
▁conduite	-10.3614
▁bɔptə	-10.3621
▁richesses	-10.3624
lle	-10.3639
▁région	-10.3647
▁voient	-10.3653
▁image	-10.3656
▁nthənyə	-10.3658
▁simnyə	-10.3659
▁pɔpɔ	-10.366
▁Va	-10.3674
dit	-10.3689
ble	-10.369
▁sǐ	-10.3695
Unité	-10.3696
ɔk	-10.371
▁pratique	-10.3738
▁demeura	-10.3761
rn	-10.378
▁partir	-10.3801
ré	-10.3837
▁crois	-10.3852
▁ləŋtə	-10.3868
▁vam	-10.3892
bo	-10.3906
▁manifesté	-10.3926
▁camerounais	-10.3936
▁situ	-10.3958
▁Est	-10.3989
▁puissant	-10.3992
ombre	-10.4004
▁écoute	-10.4011
▁guerre	-10.4012
▁soin	-10.402
▁Toute	-10.4022
▁abandon	-10.403
▁Ghɔ	-10.4063
leur	-10.4064
▁Franc	-10.4075
▁soumis	-10.4095
▁kwǐ	-10.4098
°	-10.4098
▁Antiokia	-10.4098
▁Lazaro	-10.4098
▁hbts	-10.4098
▁kwishwɔp	-10.4098
▁souffert	-10.4098
▁zèle	-10.4098
▁ŋkó	-10.4098
▁ŋkwyəpnyə	-10.4098
▁tristesse	-10.4098
▁gendarmerie	-10.4098
▁Shyə	-10.4098
▁prenez	-10.4099
▁Placé	-10.41
▁croient	-10.41
▁Gùŋ	-10.4101
▁Fʉ	-10.4101
▁Directeur	-10.4102
▁Adam	-10.4103
▁cwé	-10.4104
▁allaient	-10.4104
▁tribun	-10.4105
▁cherchez	-10.4105
▁khə	-10.4107
▁monəŋthə	-10.4107
▁cî	-10.4108
▁shwe	-10.4108
▁Pû	-10.411
▁tɔk	-10.4112
▁demeurez	-10.4115
▁Pó	-10.4115
▁Sɛ	-10.4117
▁zhwiŋ	-10.4117
▁gó	-10.4118
entrer	-10.4123
▁prêch	-10.4123
▁yó	-10.4125
▁Élie	-10.413
▁dois	-10.4131
▁dʉ	-10.4132
▁npfʉ	-10.4132
▁afflictions	-10.4133
▁arrêtés	-10.4133
▁poissons	-10.4133
▁suite	-10.4135
DU	-10.4155
▁kh	-10.4189
▁dessus	-10.4198
▁nthəŋ	-10.4212
▁wâ	-10.4228
dé	-10.424
cǐ	-10.4268
▁tí	-10.4272
▁aimé	-10.4306
▁déclare	-10.4308
▁Re	-10.4357
▁cam	-10.4358
P	-10.4398
▁parti	-10.4408
tí	-10.4411
vant	-10.4424
▁mêmes	-10.4438
▁Cet	-10.4472
▁chercher	-10.4483
▁accusé	-10.4486
▁vain	-10.4521
▁pré	-10.4521
▁question	-10.4541
▁compagnon	-10.4544
▁militaire	-10.4544
▁champ	-10.4544
▁vêtement	-10.4545
▁miracle	-10.4545
▁nuée	-10.4546
tyɛ	-10.4556
image	-10.4561
rs	-10.4561
kamsi	-10.4564
dʉ	-10.4564
▁tel	-10.4567
wɔk	-10.4588
▁phə	-10.4601
▁reni	-10.462
▁ŋkhu	-10.4623
▁Atanga	-10.4624
ŋwì	-10.4624
▁Chargé	-10.4624
▁Covid	-10.4624
▁Efeso	-10.4624
▁Kaesarea	-10.4624
▁Mpuŋts	-10.4624
▁Secrétaire	-10.4624
▁animaux	-10.4624
▁bruit	-10.4624
▁jwyə	-10.4624
▁souci	-10.4624
Ouest	-10.4624
▁Penda	-10.4624
▁Toi	-10.4624
▁prophétie	-10.4624
▁consolation	-10.4624
▁pâ	-10.4624
▁serment	-10.4625
▁création	-10.4625
▁demandèrent	-10.4625
▁rang	-10.4625
▁trouvèrent	-10.4625
▁fallait	-10.4625
▁vaisseaux	-10.4626
▁kámtə	-10.4626
▁yɛlúŋ	-10.4627
▁assisté	-10.4627
▁gyɛ	-10.4627
▁Lui	-10.4627
▁véritablement	-10.4628
imb	-10.4629
▁élément	-10.4632
▁wɑlə	-10.4634
▁pouvez	-10.4639
▁grain	-10.4641
▁voyez	-10.4642
▁soir	-10.4642
▁cité	-10.4642
▁ŋkhùŋnyə	-10.4645
▁audience	-10.4657
▁remis	-10.4659
WƏ	-10.4659
▁Grecs	-10.4661
▁commis	-10.4687
▁Ngo	-10.4691
▁nationale	-10.4702
▁dí	-10.4703
▁cependant	-10.4718
▁ki	-10.4722
cò	-10.4722
▁mshwə	-10.4729
▁sortis	-10.4744
▁lǔ	-10.4821
th	-10.4832
appelle	-10.4847
rt	-10.4851
ɛl	-10.4886
▁u	-10.4917
▁tám	-10.4963
yá	-10.4976
ti	-10.4984
▁habite	-10.4996
▁maîtres	-10.5004
lent	-10.5016
▁trait	-10.5035
▁kw	-10.5051
fi	-10.5062
▁guérir	-10.5093
▁génération	-10.5095
▁plan	-10.5097
▁siècle	-10.5101
bʉə	-10.5112
fò	-10.5116
gǒ	-10.5122
lù	-10.5123
gə	-10.5127
vis	-10.5135
▁zhwyə	-10.5146
▁maisons	-10.5151
▁gap	-10.5152
▁caché	-10.5155
▁ŋkhùŋ	-10.516
▁passe	-10.5161
▁retour	-10.5163
lice	-10.5166
▁jwɔ	-10.5173
q	-10.5177
mber	-10.5177
iniquité	-10.5179
▁Douala	-10.518
▁Pâque	-10.518
▁commandé	-10.518
▁crains	-10.518
▁mghappfʉə	-10.518
▁piété	-10.518
▁septembre	-10.518
▁violence	-10.518
▁Sanedrɛŋ	-10.518
▁dzɔ	-10.518
▁Écritures	-10.5181
▁Lusi	-10.5181
▁vertu	-10.5181
▁fyə	-10.5182
▁long	-10.5184
▁Camerounais	-10.5185
▁Á	-10.5185
▁sabat	-10.5185
▁ordonné	-10.5186
▁ŋké	-10.5187
▁Ésaïe	-10.5189
▁annonça	-10.5189
▁heureux	-10.5189
▁sho	-10.519
▁Nationale	-10.5191
▁Mcu	-10.5191
▁Fait	-10.5195
▁ghɔptə	-10.5195
▁couronne	-10.5196
▁semé	-10.52
▁pəlá	-10.52
▁gò	-10.5205
▁viennent	-10.5209
▁belle	-10.5214
do	-10.5215
▁œil	-10.5222
▁élus	-10.5224
▁habits	-10.5233
▁créé	-10.5236
▁sacrifices	-10.5237
▁Na	-10.5256
▁laisser	-10.5262
▁Bien	-10.5267
▁levant	-10.5279
mdyə	-10.5285
▁commenc	-10.5292
▁katə	-10.5314
▁souffre	-10.5329
▁juger	-10.5341
▁tiŋ	-10.5346
che	-10.5376
ard	-10.5377
▁services	-10.5378
▁mù	-10.544
urs	-10.5445
▁accord	-10.5448
▁appela	-10.5453
ang	-10.5465
rons	-10.547
rie	-10.5488
oyons	-10.549
▁livrer	-10.5496
ŋkhə	-10.55
▁annonce	-10.5515
▁montre	-10.5516
rai	-10.552
ier	-10.5526
ûŋ	-10.5533
▁ami	-10.5534
AC	-10.5559
ŋgəle	-10.5566
ca	-10.5566
ussitôt	-10.5581
cʉ	-10.5601
▁Mes	-10.5668
▁i	-10.5677
▁trompette	-10.5682
▁libre	-10.5682
▁plu	-10.5687
▁jugé	-10.5689
▁sœur	-10.5691
▁apôtre	-10.5695
gʉɔ	-10.57
▁17	-10.5704
aller	-10.5704
œuvre	-10.5704
ké	-10.5725
pé	-10.5725
▁sainte	-10.5731
▁adultère	-10.5732
mkwə	-10.5744
04	-10.5753
▁dons	-10.5755
▁veu	-10.5757
▁descendi	-10.5757
▁troupe	-10.5766
▁meurt	-10.5767
émission	-10.5767
▁troupeau	-10.5768
admiration	-10.5768
▁Région	-10.5768
▁Sacrificateur	-10.5768
▁berger	-10.5768
▁décembre	-10.5768
▁prince	-10.5768
▁pyáp	-10.5768
▁Azia	-10.5768
▁retira	-10.5768
▁prédication	-10.5768
▁conseil	-10.5768
▁mtìŋ	-10.5768
▁Anciens	-10.5768
▁pfɔptə	-10.5768
▁kê	-10.5768
▁tremblement	-10.5768
▁cheveux	-10.5768
▁Kɔŋs	-10.5769
▁connaissez	-10.5769
▁Ngoh	-10.5769
▁soif	-10.5769
▁bord	-10.5769
▁Césarée	-10.577
▁obtenu	-10.577
▁laissé	-10.577
▁prodiges	-10.5771
▁22	-10.5771
▁NƏ	-10.5771
▁sinon	-10.5773
▁président	-10.5775
▁perd	-10.5775
və	-10.5781
▁yǎm	-10.5782
▁exerce	-10.5784
▁péagers	-10.5795
▁enquête	-10.5797
àp	-10.5798
▁lɛtə	-10.5798
▁étonnés	-10.58
▁partit	-10.5805
▁parfaite	-10.5805
▁convoitises	-10.581
▁Má	-10.581
▁recherche	-10.5821
▁tuer	-10.5822
▁kà	-10.5823
appel	-10.583
▁années	-10.5839
▁vision	-10.5841
tin	-10.5841
▁coups	-10.5878
▁saisi	-10.5881
▁dɔnyə	-10.5887
ad	-10.5893
sca	-10.5909
▁préparé	-10.5913
▁Ts	-10.5917
),	-10.5935
▁places	-10.5952
venant	-10.5962
▁vase	-10.5968
▁chasse	-10.5971
▁Israël	-10.5976
▁entrés	-10.5977
▁prise	-10.598
▁montagnes	-10.5992
▁eaux	-10.6002
▁ká	-10.6006
D	-10.6008
▁tour	-10.6012
▁pierres	-10.6042
ciŋnyə	-10.6068
▁Mghɔ	-10.6071
▁Ko	-10.6081
mba	-10.61
▁arrivera	-10.6131
ule	-10.6133
▁présents	-10.6139
yɔ	-10.6162
▁guéris	-10.6192
▁laisse	-10.6192
▁aie	-10.6214
ments	-10.6214
▁nɔ	-10.6241
▁délivré	-10.6255
▁səŋ	-10.626
ghə	-10.6265
ène	-10.6269
▁publique	-10.631
▁veille	-10.6311
▁céleste	-10.6312
▁veuve	-10.6313
Ə	-10.6314
tout	-10.6315
▁soi	-10.6325
affliction	-10.6327
▁justifié	-10.6328
▁səm	-10.6329
»	-10.633
inistère	-10.6331
devant	-10.6333
instant	-10.6338
▁Sə	-10.6344
▁moisson	-10.6357
▁dù	-10.6359
shə	-10.6359
ables	-10.6368
pá	-10.637
▁puisqu	-10.6371
▁kyəp	-10.6383
▁Damas	-10.639
▁gendarme	-10.6393
▁Capernaüm	-10.6393
▁Etiennə	-10.6393
▁Kapɛrnaum	-10.6393
▁RDPC	-10.6393
▁Sadukai	-10.6393
▁compassion	-10.6393
▁figuier	-10.6393
▁gauche	-10.6393
▁mgənɔm	-10.6393
▁oiseaux	-10.6393
▁policier	-10.6393
▁prirent	-10.6393
herbe	-10.6393
▁Kaməlûm	-10.6393
▁Remy	-10.6393
▁louange	-10.6393
▁connaissons	-10.6393
▁bviŋ	-10.6393
▁faveur	-10.6393
▁corruption	-10.6393
▁idoles	-10.6393
▁bɔkpɔ	-10.6393
▁mŋwa	-10.6393
▁Ze	-10.6394
▁Mesia	-10.6394
▁tenté	-10.6394
▁tabernacle	-10.6394
▁tentation	-10.6395
▁voulait	-10.6395
▁descendre	-10.6395
▁semble	-10.6395
▁endroit	-10.6395
▁shú	-10.6396
▁Damasi	-10.6396
▁bonté	-10.6396
▁zhwɔp	-10.6396
▁courage	-10.6397
▁passait	-10.6397
▁Septe	-10.6398
▁souffrir	-10.64
▁jɑwə	-10.64
▁désormais	-10.6401
▁laissant	-10.6401
▁saluent	-10.6402
pap	-10.6403
▁fɔk	-10.6403
▁viendront	-10.6404
▁pǒtsə	-10.6405
▁dəpa	-10.641
▁shɔm	-10.6411
▁guérit	-10.6411
▁kəkɔ	-10.6412
▁suivit	-10.6413
▁nú	-10.6413
▁sème	-10.6414
▁racont	-10.6414
▁baknyə	-10.6417
▁partout	-10.642
▁gû	-10.6424
▁jáp	-10.6428
▁assemblés	-10.6432
▁gaptə	-10.6433
▁possédé	-10.6433
▁ŋkhúŋ	-10.6434
▁cou	-10.6436
▁mission	-10.6446
▁mkəm	-10.6458
▁bé	-10.6466
bu	-10.6466
▁lavé	-10.6472
▁Dé	-10.6473
▁Ni	-10.6474
▁publiques	-10.6474
▁9	-10.6474
no	-10.6485
▁monter	-10.6487
ici	-10.6487
▁militaires	-10.649
▁tels	-10.649
▁marcher	-10.6493
▁só	-10.6507
▁kɑlə	-10.6515
▁cap	-10.6516
▁lú	-10.6516
ap	-10.6516
▁allés	-10.6516
▁pà	-10.6524
▁marque	-10.6536
▁principale	-10.6544
▁jɔmyɔm	-10.6547
▁gh	-10.6552
▁nya	-10.6569
▁wak	-10.6581
▁jwiŋ	-10.6582
▁tombe	-10.6597
éri	-10.6605
ki	-10.6617
▁présenter	-10.6622
▁fusse	-10.6636
lam	-10.6638
▁be	-10.6663
ille	-10.6673
▁âmes	-10.6673
▁vues	-10.6675
ois	-10.6687
née	-10.6689
▁dirai	-10.6697
▁mna	-10.671
▁trouble	-10.6713
▁manque	-10.6729
ul	-10.6732
▁condamné	-10.6738
▁Batə	-10.6752
▁regard	-10.6755
▁ŋkw	-10.68
isme	-10.6805
îŋ	-10.6832
zhyə	-10.6857
km	-10.6858
▁puissances	-10.6862
▁bâti	-10.6864
▁pourra	-10.6868
▁prêt	-10.6868
▁14	-10.6882
▁servi	-10.6883
ìŋ	-10.6911
▁exhorte	-10.6916
▁autant	-10.6924
kwə	-10.6947
▁sím	-10.6951
▁moyen	-10.6974
▁possible	-10.6975
yǝ	-10.6988
▁lève	-10.699
assemblée	-10.6992
ut	-10.6995
B	-10.6996
oyez	-10.6996
▁arbre	-10.7014
▁année	-10.7017
▁gù	-10.7025
▁swɔp	-10.7026
kətú	-10.7031
▁conduit	-10.7037
▁conduis	-10.7055
▁recev	-10.7056
▁danger	-10.7058
▁sceau	-10.7059
▁commande	-10.7059
kà	-10.7059
oreille	-10.7059
▁salue	-10.706
évrier	-10.706
▁Jourdain	-10.706
▁Marthe	-10.706
▁Sinagogə	-10.706
▁Thursday	-10.706
▁Yurdɛŋ	-10.706
▁dəŋnyələŋnyə	-10.706
▁perdition	-10.706
▁retournèrent	-10.706
▁réponse	-10.706
▁touché	-10.706
▁Festus	-10.706
▁coutume	-10.706
▁changé	-10.706
▁noces	-10.706
▁prié	-10.706
▁pourceaux	-10.706
▁jakasi	-10.706
▁devons	-10.706
▁Festo	-10.706
▁bhə	-10.706
▁surpris	-10.706
▁27	-10.7061
▁Garde	-10.7061
OP	-10.7061
▁Voilà	-10.7061
▁voile	-10.7061
▁toutefois	-10.7061
▁pâque	-10.7062
▁Mco	-10.7062
▁voulant	-10.7062
▁perdra	-10.7062
▁mourut	-10.7062
▁shwanwə	-10.7064
▁məbʉə	-10.7065
▁science	-10.7066
▁Shə	-10.707
▁prêché	-10.7072
▁coupable	-10.7073
▁Tadyə	-10.7074
▁vignerons	-10.7074
▁shyəcyə	-10.7075
▁Antioche	-10.7075
▁shɔk	-10.7077
▁serons	-10.7078
▁gì	-10.708
▁vivra	-10.708
▁constaté	-10.7081
▁Sha	-10.7082
▁maladies	-10.7085
▁étoiles	-10.7085
▁liens	-10.7086
▁âge	-10.7086
▁abandonné	-10.7088
▁marqués	-10.7091
▁sac	-10.7091
▁méchants	-10.7103
▁étrangers	-10.7107
▁vieux	-10.7108
▁nǝ	-10.7121
▁docteurs	-10.7124
▁mène	-10.7128
▁esclaves	-10.713
▁tard	-10.713
▁pense	-10.716
▁devez	-10.7162
▁champs	-10.7163
▁compagnons	-10.7163
▁jou	-10.7168
▁continu	-10.7177
laire	-10.7178
▁prête	-10.7181
▁manifestée	-10.7189
▁riches	-10.719
▁vaccin	-10.7203
▁Msə	-10.7205
eront	-10.7212
▁pùŋ	-10.7214
▁mauvaises	-10.7216
▁victimes	-10.722
▁vents	-10.722
▁verra	-10.7222
▁im	-10.7241
▁ták	-10.7246
▁cri	-10.7253
▁Co	-10.7257
▁camerounaise	-10.7285
ture	-10.7286
▁montrer	-10.7287
▁ressuscite	-10.729
▁fidèles	-10.7299
▁semblables	-10.731
we	-10.7316
▁dignes	-10.7333
▁vive	-10.7342
▁lɛ	-10.7369
▁arriver	-10.7375
▁arrivés	-10.738
▁ŋkhi	-10.7393
▁muet	-10.7398
be	-10.741
▁tʉɔnyə	-10.7425
euse	-10.7442
▁Du	-10.7477
▁kwîp	-10.7493
lais	-10.7519
▁vêtu	-10.7535
pû	-10.756
▁cherch	-10.7573
▁cesse	-10.7588
ses	-10.7591
▁réjouis	-10.7592
U	-10.7592
▁dzəŋ	-10.7607
knyə	-10.7628
▁Quel	-10.7629
part	-10.7635
ga	-10.7659
ed	-10.7675
▁mǒ	-10.7677
Y	-10.7678
▁faible	-10.7686
aucun	-10.7687
▁immonde	-10.7692
wî	-10.7699
gho	-10.77
bed	-10.7701
pha	-10.7702
avènement	-10.7707
LE	-10.7707
Égypte	-10.7708
▁prépar	-10.7709
annoncer	-10.771
nommé	-10.7711
J	-10.7711
msɛ	-10.7737
▁pí	-10.774
▁kwí	-10.7741
▁mai	-10.7745
unité	-10.7745
oussa	-10.7746
▁assujetti	-10.7752
▁résolu	-10.7752
▁craign	-10.7758
tam	-10.7768
autant	-10.7769
élève	-10.777
▁Direct	-10.7773
Baptiste	-10.7774
▁Babilon	-10.7774
▁Ebraika	-10.7774
▁NOSO	-10.7774
▁Nullement	-10.7774
▁Sakaria	-10.7774
▁Sanhédrin	-10.7774
▁bwapwǎ	-10.7774
▁byáp	-10.7774
▁concerne	-10.7774
▁condition	-10.7774
▁croyai	-10.7774
▁fumée	-10.7774
▁naissance	-10.7774
▁retiré	-10.7774
▁soixante	-10.7774
▁tempête	-10.7774
▁enseigné	-10.7774
▁sixième	-10.7774
▁Gaə	-10.7774
▁entière	-10.7774
▁pèche	-10.7774
▁douceur	-10.7774
▁éprouvé	-10.7774
Assemblée	-10.7774
▁voilà	-10.7774
▁battu	-10.7774
▁wúŋ	-10.7774
▁Rabi	-10.7774
▁Marta	-10.7775
▁Tito	-10.7775
▁gard	-10.7775
▁ŋkhyəp	-10.7775
▁Mada	-10.7776
▁21	-10.7776
▁diverses	-10.7777
▁achevé	-10.7777
▁craignez	-10.7778
▁écoutez	-10.7778
▁bíí	-10.7779
▁Sachant	-10.7781
▁racine	-10.7781
▁Éphèse	-10.7781
▁mpfɔk	-10.7782
▁Jyə	-10.7782
▁nyap	-10.7782
assit	-10.7783
tenaient	-10.7784
▁bois	-10.7784
▁tombée	-10.7784
▁priez	-10.7784
▁Dwɔ	-10.7785
▁jugez	-10.7785
▁André	-10.7786
▁priant	-10.7788
▁ouvre	-10.7788
▁unique	-10.7788
▁pourtant	-10.7789
▁salaire	-10.7791
▁prièrent	-10.7792
estime	-10.7794
▁Mb	-10.7794
▁sert	-10.7795
île	-10.7796
▁Dôgǔ	-10.7796
ŋwǎlá	-10.7799
▁placé	-10.78
▁vingt	-10.7801
ral	-10.7802
out	-10.7809
▁Mal	-10.781
▁devenir	-10.7812
▁nul	-10.7813
▁autrement	-10.7814
▁gwɑ	-10.7815
▁écris	-10.7815
fe	-10.7816
▁zhwyətə	-10.7819
▁aiment	-10.782
▁guérie	-10.7822
▁dzʉywə	-10.7822
za	-10.7828
▁intelligence	-10.7834
▁cris	-10.7836
aine	-10.784
▁disons	-10.7841
▁pécheurs	-10.7843
▁faibles	-10.7845
▁Lu	-10.7861
▁justifiés	-10.7867
▁veuves	-10.7868
hi	-10.7877
▁nê	-10.7888
▁Mfa	-10.7894
▁tsəŋ	-10.7896
▁è	-10.7896
▁ná	-10.7902
▁kâ	-10.791
▁prends	-10.7922
ssant	-10.7938
▁amour	-10.7941
▁Be	-10.7943
▁fermes	-10.795
▁tire	-10.7951
tang	-10.7974
▁tomber	-10.7982
▁vivants	-10.8009
▁mtǎ	-10.8013
G	-10.8032
sǔ	-10.8041
▁Es	-10.8069
su	-10.8072
▁nouvelles	-10.8087
▁têtes	-10.8103
▁heures	-10.8125
▁ouverte	-10.8125
mnə	-10.8135
avai	-10.817
mɔk	-10.819
▁glorifi	-10.8204
entend	-10.8206
ká	-10.8219
aura	-10.8243
tʉ	-10.8252
▁commet	-10.8258
entrée	-10.8279
tez	-10.8317
▁sɛtə	-10.8327
connaissant	-10.8343
cyə	-10.8348
▁voudra	-10.837
▁souillé	-10.8387
▁fr	-10.8398
rait	-10.8399
▁respect	-10.8405
▁parfait	-10.8405
▁saisis	-10.8406
lák	-10.8428
chiez	-10.8433
▁U	-10.8439
▁répand	-10.8446
▁bourg	-10.8457
▁scandale	-10.8459
▁parfum	-10.8461
▁semaine	-10.8464
▁membre	-10.8464
▁pensée	-10.8464
▁sacrifice	-10.8465
▁pied	-10.8466
▁rende	-10.8468
alité	-10.847
assemblèrent	-10.8475
envoyer	-10.8477
▁ancien	-10.8478
intelligence	-10.8478
adultère	-10.8479
environ	-10.8484
▁12	-10.849
▁recevra	-10.8497
hɔ	-10.8501
▁connue	-10.8504
▁Sion	-10.8506
approcha	-10.8508
▁esclave	-10.8512
ème	-10.8525
yà	-10.8527
▁éternel	-10.8533
ktə	-10.8536
▁200	-10.8537
▁nature	-10.8542
envoie	-10.8542
lusieurs	-10.8542
aumône	-10.8543
▁Ra	-10.8543
armée	-10.8543
᷆	-10.8543
Etudes	-10.8543
Ǒ	-10.8543
▁Kornəlio	-10.8543
▁Zacharie	-10.8543
▁croyant	-10.8543
▁cérémonie	-10.8543
▁domicile	-10.8543
▁dragon	-10.8543
▁paralytique	-10.8543
▁Levi	-10.8543
▁fleuve	-10.8543
▁pəzhwə	-10.8543
▁utile	-10.8543
▁mcwanwə	-10.8543
▁debout	-10.8543
ARA	-10.8543
riote	-10.8543
▁Tyr	-10.8543
▁cəcə	-10.8543
▁menaces	-10.8543
▁déchir	-10.8543
▁mcǔŋ	-10.8543
▁ouvriers	-10.8543
▁Viens	-10.8544
▁mcap	-10.8544
▁rassasiés	-10.8544
▁village	-10.8544
▁entrèrent	-10.8544
▁offre	-10.8544
▁Tite	-10.8544
▁Salomon	-10.8544
▁contrée	-10.8545
▁écriv	-10.8545
▁tiré	-10.8546
▁suivirent	-10.8546
▁instruit	-10.8546
▁société	-10.8546
▁larron	-10.8547
▁Foguŋ	-10.8547
▁vaut	-10.8547
▁perte	-10.8548
▁páknyə	-10.8548
ardien	-10.8548
▁doivent	-10.8549
vier	-10.8549
▁conduire	-10.855
▁raisonn	-10.855
▁tsaə	-10.8551
▁khʉdʉ	-10.8552
andis	-10.8554
▁derrière	-10.8556
▁envoyèrent	-10.8556
huile	-10.8557
▁cwyə	-10.8557
▁tùŋ	-10.8558
▁tache	-10.8558
▁chaînes	-10.856
▁souffrances	-10.856
▁plaies	-10.856
▁faisons	-10.856
▁cadre	-10.8563
ète	-10.8565
▁ghak	-10.8565
▁couple	-10.8568
▁arrive	-10.857
▁arrivée	-10.8571
▁gǎ	-10.8572
▁montra	-10.8575
▁éclat	-10.8577
▁gwak	-10.8577
▁peux	-10.8579
▁signifie	-10.8585
▁sources	-10.8586
▁Bɔ	-10.859
nɛ	-10.8593
dre	-10.8595
▁entendant	-10.8599
car	-10.86
▁cí	-10.8609
▁pièces	-10.8612
▁quartiers	-10.8618
▁pardonnés	-10.8618
▁shap	-10.8619
▁ordre	-10.862
▁nthutə	-10.8625
▁mǐ	-10.8633
ye	-10.8633
▁cyanyə	-10.8636
▁Moi	-10.8641
▁jugés	-10.8651
▁ŋi	-10.8655
▁honneur	-10.8661
▁kǔ	-10.8664
▁tsá	-10.8669
▁loua	-10.8669
▁sonyə	-10.8671
▁regardé	-10.8673
vais	-10.8676
▁certains	-10.8683
wǝ	-10.8699
▁mtɔ	-10.8703
▁aimer	-10.8705
▁bì	-10.8706
▁Quelqu	-10.8706
▁Ass	-10.8707
▁lettres	-10.871
▁potsə	-10.8733
▁bâ	-10.8748
▁59	-10.8751
▁Ave	-10.8752
▁mets	-10.8767
▁bâtir	-10.8776
sí	-10.8776
▁msəm	-10.8781
▁présente	-10.879
▁saisir	-10.8808
▁ex	-10.8813
▁sépulcres	-10.8823
▁promesses	-10.8829
▁maris	-10.8844
▁cwətə	-10.8844
gi	-10.8849
mjwǐ	-10.886
▁juges	-10.8862
▁appel	-10.887
▁morte	-10.8906
cation	-10.8927
▁pɔm	-10.8951
ot	-10.8964
▁Fe	-10.8965
▁mkət	-10.8991
arrive	-10.9004
bé	-10.9011
▁dise	-10.9046
▁éclair	-10.9072
RE	-10.9073
able	-10.9116
▁ravi	-10.9123
▁détruit	-10.9132
et	-10.9132
▁prêche	-10.9146
ouvre	-10.9157
▁púŋ	-10.9172
▁espér	-10.9173
▁somme	-10.9175
▁páp	-10.9211
▁dos	-10.9223
▁sache	-10.9234
▁habit	-10.926
▁présenté	-10.9261
▁réjouir	-10.9265
▁Eba	-10.9266
▁abonde	-10.9285
▁mghəŋ	-10.9295
▁quartier	-10.9296
▁pécheur	-10.9296
▁docteur	-10.9296
▁pauvre	-10.9297
▁Juda	-10.9298
▁persuadé	-10.9298
avance	-10.9309
quatre	-10.9314
mcuŋ	-10.9314
œil	-10.9319
mghě	-10.932
▁zhw	-10.9321
▁incirconcis	-10.9332
▁pardonné	-10.9338
udi	-10.9354
▁aimera	-10.936
▁ŋʉ	-10.9372
▁regardai	-10.9372
kwyatə	-10.9373
▁donnés	-10.9376
▁voyage	-10.9376
▁tradition	-10.9376
éternité	-10.9377
▁Agrippa	-10.9377
▁Andreya	-10.9377
▁Babylone	-10.9377
▁Barabas	-10.9377
▁Barabbas	-10.9377
▁Betanya	-10.9377
▁Magdala	-10.9377
▁Makdala	-10.9377
▁Malicka	-10.9377
▁Nouvelle	-10.9377
▁Oliviers	-10.9377
▁Prends	-10.9377
▁Secrétariat	-10.9377
▁Thomas	-10.9377
▁Zébédée	-10.9377
▁animal	-10.9377
▁chicha	-10.9377
▁géhenne	-10.9377
▁hypocrites	-10.9377
▁impossible	-10.9377
▁suivait	-10.9377
▁séduit	-10.9377
▁DÔGÙŊ	-10.9377
▁seigneur	-10.9377
▁Ntâm	-10.9377
PHE	-10.9377
▁Salomoŋ	-10.9377
▁trente	-10.9377
▁vaincu	-10.9377
▁quitté	-10.9377
▁genoux	-10.9377
▁ghìŋ	-10.9377
▁fixé	-10.9377
▁promptement	-10.9377
▁Troas	-10.9377
▁Maintenant	-10.9377
▁mthəsì	-10.9377
▁rebelles	-10.9377
▁Tiro	-10.9377
▁groupe	-10.9377
▁sainteté	-10.9377
▁mɛnyə	-10.9378
gestion	-10.9378
▁santé	-10.9378
khamsi	-10.9378
mcʉ	-10.9378
▁allez	-10.9378
▁kwá	-10.9379
▁syap	-10.9379
▁npfɔk	-10.9379
▁msuŋ	-10.9379
▁gain	-10.9379
▁communion	-10.9379
ŋkʉ	-10.9379
▁convient	-10.9379
▁lutte	-10.9379
▁gagner	-10.938
▁Atou	-10.938
▁05	-10.9381
▁appartien	-10.9381
▁pò	-10.9381
▁pres	-10.9382
▁déclaré	-10.9382
▁revenu	-10.9382
▁priait	-10.9382
▁tsu	-10.9383
▁menteur	-10.9383
▁tort	-10.9383
▁Adjoint	-10.9383
▁préparer	-10.9384
▁document	-10.9384
▁trouverez	-10.9387
▁ŋaknyə	-10.9387
▁hait	-10.9388
▁sortaient	-10.9388
▁Lɑ	-10.9388
▁Tyɛ	-10.9389
kta	-10.9391
▁ardeur	-10.9391
▁Nord	-10.9391
▁rendra	-10.9392
▁tádyə	-10.9392
▁emporter	-10.9392
▁éternellement	-10.9393
▁donnez	-10.9395
▁épines	-10.9397
▁tê	-10.9397
▁hé	-10.9397
▁SE	-10.9398
▁larmes	-10.9404
▁jwɔk	-10.9404
▁Mɑ	-10.9405
▁ŋkhʉɔ	-10.9406
▁cɑ	-10.9407
▁voisins	-10.9407
▁túŋ	-10.941
▁armes	-10.9415
▁France	-10.9415
▁affection	-10.9421
▁entendez	-10.9424
▁servante	-10.9426
ǎm	-10.9428
▁supporter	-10.9429
emmenèrent	-10.9429
if	-10.9431
▁travaille	-10.9431
▁accomplis	-10.9432
▁similitudes	-10.9437
▁dents	-10.9437
▁passant	-10.9439
▁per	-10.9453
▁instant	-10.9468
▁conserv	-10.9471
▁vêtus	-10.9474
▁Də	-10.9475
▁ntɔ	-10.949
▁ôter	-10.949
▁Mnwə	-10.9493
▁dò	-10.9493
rise	-10.9507
ol	-10.9521
▁choisis	-10.9523
olution	-10.9526
▁frappe	-10.9532
Alph	-10.9538
▁neuf	-10.9538
▁partage	-10.955
yap	-10.9553
mnwə	-10.9554
▁assez	-10.9564
kəcɔk	-10.9578
▁mesures	-10.9578
▁dusi	-10.9588
▁bvʉtə	-10.9598
ŋwə	-10.9604
▁forme	-10.9608
▁tra	-10.9611
▁Eux	-10.9627
ntɔ	-10.9633
ique	-10.9693
amen	-10.9699
▁attend	-10.9701
▁aimés	-10.9702
▁sam	-10.9718
▁baptə	-10.9719
▁bout	-10.9745
▁aim	-10.9745
ction	-10.9758
▁dəŋnyə	-10.9774
bɔ	-10.9783
▁5	-10.9802
▁tourn	-10.9811
▁ven	-10.9811
aix	-10.9825
Ŋ	-10.9832
▁sépare	-10.9862
vé	-10.9876
esse	-10.9883
▁défend	-10.9907
ouba	-10.9935
aille	-10.9951
zhí	-10.9968
▁Sh	-11.0012
▁dəŋtə	-11.0031
aurai	-11.005
▁moqu	-11.0053
▁dorm	-11.0055
chant	-11.0061
▁Mar	-11.0069
ussent	-11.0088
vint	-11.0097
▁port	-11.0102
AL	-11.0113
▁mett	-11.0118
▁frapper	-11.0118
▁reconnaiss	-11.013
yak	-11.0135
ailleurs	-11.0143
âme	-11.0147
îmes	-11.0147
▁national	-11.0152
wâ	-11.0187
viez	-11.0188
vʉ	-11.0189
qui	-11.0204
▁prisonnier	-11.0204
▁population	-11.0204
▁pièce	-11.0205
▁robe	-11.0206
▁malin	-11.0209
mnthu	-11.0213
dedans	-11.0218
Asie	-11.022
héritage	-11.022
gré	-11.0221
Hérode	-11.0222
état	-11.0224
▁fortifi	-11.0237
▁An	-11.0242
▁23	-11.0244
▁sak	-11.0245
▁viol	-11.0249
▁ghʉ	-11.0251
sya	-11.0258
kyə	-11.0259
bəŋ	-11.0259
▁rejeté	-11.0266
▁laissa	-11.0269
abinet	-11.0277
▁apparu	-11.0279
▁trans	-11.0282
Ꞌ	-11.0283
▁Mfou	-11.0285
▁contribu	-11.0286
Achaïe	-11.0286
GRA	-11.0286
abîme	-11.0286
▁Agripa	-11.0286
▁Aujourd	-11.0286
▁Buŋts	-11.0286
▁Béthanie	-11.0286
▁Hwitə	-11.0286
▁Iskariɔt	-11.0286
▁Kolóna	-11.0286
▁Kribi	-11.0286
▁Premier	-11.0286
▁Tomasi	-11.0286
▁Wednesday	-11.0286
▁actuellement	-11.0286
▁chute	-11.0286
▁construire	-11.0286
▁davantage	-11.0286
▁msamshwə	-11.0286
▁offert	-11.0286
▁relative	-11.0286
▁sadducéens	-11.0286
▁souper	-11.0286
▁conjur	-11.0286
▁enlevé	-11.0286
▁mfomfo	-11.0286
▁Nkanmogne	-11.0286
▁issu	-11.0286
▁cantique	-11.0286
mbù	-11.0286
▁màmà	-11.0286
▁Alex	-11.0286
apparence	-11.0286
▁baiser	-11.0286
▁retourna	-11.0286
▁interpellé	-11.0286
▁mghe	-11.0286
▁Piŋ	-11.0286
▁Femme	-11.0286
▁kwyap	-11.0286
▁figure	-11.0286
▁Béni	-11.0286
madou	-11.0286
▁réseau	-11.0286
▁relation	-11.0286
▁ŋwǎla	-11.0287
▁chambre	-11.0287
▁cwi	-11.0287
▁verront	-11.0287
▁ghǔ	-11.0287
▁Ŋwâlâ	-11.0287
▁gouvernement	-11.0287
▁ŋkhʉdʉ	-11.0288
▁perdre	-11.0288
▁Roi	-11.0289
▁Kamelûn	-11.0289
▁chasser	-11.029
▁criaient	-11.0291
▁pǎ	-11.0292
▁kətwɔk	-11.0293
▁Paris	-11.0293
▁ŋkwishyə	-11.0293
▁poids	-11.0294
▁Yona	-11.0295
▁croire	-11.0295
▁06	-11.0295
▁fɔkdzʉ	-11.0296
▁bras	-11.0296
approchant	-11.0297
▁ferons	-11.0298
▁Tsə	-11.0298
▁criant	-11.0299
▁fortement	-11.0301
▁vidéo	-11.0301
▁sécurité	-11.0301
▁səkú	-11.0302
▁hapnyə	-11.0304
▁Sara	-11.0304
ssez	-11.0306
▁rencontre	-11.0307
▁ŋkɔ	-11.0307
▁asseoir	-11.0308
ix	-11.0308
▁nàm	-11.0308
▁lambu	-11.0308
▁tiens	-11.0309
▁rompu	-11.0309
▁sortie	-11.0311
▁vend	-11.0311
▁humaine	-11.0311
▁ntútə	-11.0314
assembla	-11.0318
▁nthú	-11.0319
du	-11.0321
▁demandé	-11.0323
▁mbak	-11.0328
▁sergents	-11.0329
▁tsiŋ	-11.0331
▁spirituelle	-11.0331
▁demandent	-11.0332
▁Isaac	-11.0333
exécut	-11.0334
▁yù	-11.0335
ouverture	-11.0343
▁informé	-11.0346
▁sata	-11.0348
▁héritage	-11.0351
▁outre	-11.0356
▁incrédules	-11.036
▁saine	-11.0363
▁populations	-11.0368
▁ET	-11.0374
▁parlent	-11.0377
▁payer	-11.0384
▁écrites	-11.0387
▁fò	-11.0398
ives	-11.04
▁prêts	-11.04
▁célestes	-11.0407
▁mìŋ	-11.0411
▁mâ	-11.0418
▁dâ	-11.0418
ing	-11.0421
▁oui	-11.0426
▁papfʉə	-11.0427
min	-11.0432
▁mfə	-11.0434
▁fəŋtə	-11.0435
▁affaires	-11.0454
nce	-11.046
action	-11.0464
menèrent	-11.0468
▁Ame	-11.0473
▁Quelle	-11.0476
entendre	-11.0479
sses	-11.0479
nga	-11.0484
▁Ntwɔ	-11.0484
man	-11.0489
▁voies	-11.0502
▁quitta	-11.0504
▁mtsə	-11.0516
▁mcɛ	-11.0531
▁délivrer	-11.0531
▁ministres	-11.0542
▁cʉm	-11.0567
▁moissonne	-11.057
▁nommée	-11.0576
ŋkǔ	-11.0579
▁voudr	-11.0585
▁bêtes	-11.0592
▁apporta	-11.0599
▁mla	-11.0605
▁enseigne	-11.0618
vez	-11.0622
▁exact	-11.0642
▁Cel	-11.0645
▁savaient	-11.0651
▁distribu	-11.0654
tʉɔ	-11.0656
sent	-11.066
▁approche	-11.0667
nent	-11.0686
▁saison	-11.0702
▁bv	-11.0705
▁filles	-11.0727
96	-11.0734
don	-11.0765
ue	-11.0773
▁inter	-11.0797
▁trouvera	-11.0809
ex	-11.0838
hin	-11.0846
▁ressuscitera	-11.0848
▁Ah	-11.0875
▁cɔm	-11.0913
▁sâ	-11.0917
pi	-11.0933
kho	-11.094
▁personnel	-11.096
▁confess	-11.0969
▁Con	-11.0977
khʉɔ	-11.0991
▁bons	-11.0991
▁zhwətə	-11.1
▁condamne	-11.101
irai	-11.1015
hommes	-11.1025
▁Suis	-11.1032
ques	-11.1037
▁Ti	-11.1046
▁ému	-11.1048
▁ŋkwak	-11.1064
▁prenne	-11.1097
pùŋ	-11.1098
▁Pro	-11.1098
▁Ro	-11.1103
▁ajoute	-11.1106
▁averti	-11.1114
▁sel	-11.1115
▁puisse	-11.1134
rions	-11.1135
▁Kə	-11.114
▁vi	-11.1146
À	-11.1146
▁Gi	-11.1151
02	-11.1151
▁certaine	-11.1154
bú	-11.1162
nda	-11.1164
▁pfʉtə	-11.1181
▁approché	-11.1199
▁blasphème	-11.1199
▁serpent	-11.1199
▁fondement	-11.1201
▁ver	-11.1202
▁sentiment	-11.1205
▁soldat	-11.1206
▁LE	-11.1207
tyə	-11.1207
▁incrédule	-11.1208
vinrent	-11.121
%	-11.1214
espère	-11.1218
éleva	-11.1218
emporta	-11.122
▁nettoy	-11.122
▁suit	-11.1221
audience	-11.1222
Élie	-11.1222
esclave	-11.1222
▁Ju	-11.1225
rd	-11.1231
▁kǎ	-11.1241
▁zhwi	-11.1251
▁vaine	-11.1258
▁repas	-11.1259
luŋ	-11.1261
▁divisé	-11.1261
apital	-11.1277
▁souille	-11.1278
▁mgʉ	-11.1281
▁Donne	-11.1282
▁verre	-11.1284
djo	-11.1285
orgueil	-11.1285
▁perfection	-11.1286
approchèrent	-11.1286
échapp	-11.1286
▁Apolos	-11.1286
▁Corneille	-11.1286
▁Joppe	-11.1286
▁Kamerun	-11.1286
▁MINAT	-11.1286
▁Melchisédec	-11.1286
▁Owona	-11.1286
▁Raïssa	-11.1286
▁Samarie	-11.1286
▁Sodome	-11.1286
▁Sodɔm	-11.1286
▁cornes	-11.1286
▁créature	-11.1286
▁doigt	-11.1286
▁fièvre	-11.1286
▁hardiesse	-11.1286
▁irrépréhensible	-11.1286
▁mouvement	-11.1286
▁mshɔm	-11.1286
▁msinagogə	-11.1286
▁méchanceté	-11.1286
▁mənthá	-11.1286
▁neuvième	-11.1286
▁nyáptə	-11.1286
▁olivə	-11.1286
▁privé	-11.1286
▁roseau	-11.1286
▁souliers	-11.1286
▁trop	-11.1286
▁Kefas	-11.1286
▁Akaya	-11.1286
▁entrailles	-11.1286
▁froid	-11.1286
▁muraille	-11.1286
▁FCFA	-11.1286
▁client	-11.1286
▁visite	-11.1286
▁Fcfa	-11.1286
▁mangèrent	-11.1286
▁marché	-11.1286
▁Délégué	-11.1286
▁Phil	-11.1286
▁économique	-11.1286
▁impies	-11.1286
▁Yàwùdè	-11.1286
▁réjouissez	-11.1286
▁informations	-11.1286
▁amené	-11.1286
▁septième	-11.1286
▁bvò	-11.1286
▁armées	-11.1286
▁terrestre	-11.1286
▁wí	-11.1286
▁triste	-11.1286
▁interne	-11.1287
▁travaillé	-11.1287
▁aliment	-11.1287
▁recevrez	-11.1287
▁allons	-11.1287
▁Rend	-11.1287
▁gíŋ	-11.1288
▁constitutionnel	-11.1288
▁comprenez	-11.1288
▁mzhyənwə	-11.1288
▁dɔmdyə	-11.1288
riga	-11.1289
▁vendaient	-11.1289
▁contrôle	-11.1289
▁Cana	-11.1289
▁entier	-11.1289
▁approchait	-11.1289
▁marchant	-11.129
▁général	-11.129
▁jeunesse	-11.129
▁tournant	-11.1291
3)	-11.1292
▁Quelques	-11.1292
▁attendant	-11.1292
▁tyɔ	-11.1293
▁msǒ	-11.1293
▁craignant	-11.1293
▁appeler	-11.1293
▁regardant	-11.1294
▁já	-11.1294
▁combattre	-11.1295
▁ouvertement	-11.1295
▁sîsǐ	-11.1296
▁mangez	-11.1297
▁fond	-11.1297
▁voyons	-11.1298
▁Marc	-11.13
▁mots	-11.1301
▁mortel	-11.1302
▁ghé	-11.1302
▁construction	-11.1303
▁kwé	-11.1304
▁formé	-11.1305
olin	-11.1306
▁mì	-11.1306
▁malfaiteurs	-11.1307
▁Ca	-11.1308
issiez	-11.1309
▁shɔkcɔk	-11.131
▁cwe	-11.131
cam	-11.1315
▁pəcwə	-11.1316
▁purifié	-11.1316
▁Dis	-11.1318
▁ouvrir	-11.1319
▁entendirent	-11.132
▁reproche	-11.132
undi	-11.1321
▁mangent	-11.1321
▁séparé	-11.1322
▁exemple	-11.1323
▁usage	-11.1324
▁talents	-11.1325
▁saisit	-11.1325
▁recommande	-11.1327
▁Pá	-11.1329
▁Dame	-11.1332
▁viŋ	-11.1333
▁crie	-11.1333
▁épée	-11.1342
▁Dəŋ	-11.1342
▁envie	-11.1345
▁mtyə	-11.135
mane	-11.1353
▁shyətsə	-11.1353
▁disputes	-11.1358
mère	-11.1359
▁blancs	-11.1359
▁fonctions	-11.136
▁spirituels	-11.136
▁02	-11.1361
▁Asie	-11.1361
▁crut	-11.1365
00	-11.1376
▁prisonniers	-11.1377
▁Égypte	-11.138
▁mghě	-11.1382
▁paraisse	-11.1383
▁entendues	-11.1402
▁immondes	-11.1403
▁nùŋ	-11.1406
▁kɔk	-11.1408
▁six	-11.1414
▁jwətə	-11.1417
wǐ	-11.142
▁sœurs	-11.1429
▁subsister	-11.143
▁béni	-11.1433
▁ŋwə	-11.1444
▁offrir	-11.145
▁hâ	-11.146
▁Sant	-11.1461
09	-11.1482
rdina	-11.1503
ener	-11.1504
▁agi	-11.1507
gá	-11.1516
▁repenti	-11.1519
▁For	-11.1523
▁fuss	-11.1531
▁élu	-11.1539
31	-11.1539
▁mnth	-11.1549
waə	-11.1557
▁pfɔ	-11.1568
▁fu	-11.1586
aurais	-11.16
igne	-11.1612
▁chefs	-11.1615
▁argent	-11.1622
dɛ	-11.1627
▁remplie	-11.163
má	-11.1641
▁pens	-11.1653
▁enseigner	-11.1659
▁romp	-11.1671
▁fî	-11.1675
oul	-11.1677
▁tsam	-11.1687
▁méprise	-11.1701
▁répondre	-11.1711
▁tǎ	-11.1716
kdzʉ	-11.175
ouleur	-11.1756
▁saura	-11.1759
▁empêch	-11.1763
▁disput	-11.1765
▁mv	-11.1771
▁Yo	-11.1773
▁tì	-11.178
hy	-11.1788
gne	-11.1813
TI	-11.1815
▁penser	-11.1828
issent	-11.1841
▁mb	-11.1855
▁rest	-11.1864
iksə	-11.1883
▁refuse	-11.1902
accomplit	-11.1902
alais	-11.191
▁wɔdzʉ	-11.1914
▁msi	-11.192
▁ressuscit	-11.1936
▁jure	-11.1936
ì	-11.1941
yons	-11.1943
mbo	-11.1946
▁mené	-11.1958
yâ	-11.1964
▁observe	-11.1984
pǔ	-11.2014
▁continue	-11.202
ardi	-11.2022
nkou	-11.2041
irons	-11.2054
▁dette	-11.2058
▁sauve	-11.2068
▁conf	-11.2079
vaincra	-11.2116
IR	-11.2117
səŋwi	-11.2123
▁shw	-11.2124
▁zh	-11.2128
mana	-11.2133
▁divine	-11.214
▁séjour	-11.216
ric	-11.2181
▁chanta	-11.2194
▁transport	-11.2203
ader	-11.2208
ghɔ	-11.2243
ôte	-11.2252
bya	-11.2254
uté	-11.2256
▁spirituel	-11.2259
▁promis	-11.2264
53	-11.2277
EL	-11.2277
▁ôté	-11.2284
▁Michel	-11.2287
▁tente	-11.2293
▁mettr	-11.2301
gé	-11.2304
éra	-11.2309
▁fonction	-11.2309
▁éloigné	-11.2314
▁denier	-11.2314
▁sanctifié	-11.2314
▁terme	-11.2314
▁blanc	-11.2315
▁filet	-11.2315
▁révélation	-11.2315
▁similitude	-11.2316
▁étranger	-11.2316
▁convoitise	-11.2317
▁poisson	-11.2317
▁revêtu	-11.2318
▁combatt	-11.2318
▁Grec	-11.2323
qué	-11.2325
honore	-11.2325
accusation	-11.2328
accomplir	-11.2329
injustice	-11.233
▁fé	-11.233
Afrique	-11.233
organisation	-11.233
envie	-11.2331
▁ŋkhú	-11.2332
écris	-11.2332
arbre	-11.2332
gwɑ	-11.2332
aveugle	-11.2333
▁honnête	-11.2333
▁ennemi	-11.2337
année	-11.234
obten	-11.2351
ló	-11.2361
▁acte	-11.2366
▁manifest	-11.2367
▁mzhʉ	-11.2371
▁imputé	-11.2372
▁National	-11.2375
position	-11.239
usqu	-11.239
▁secte	-11.2391
▁repris	-11.2392
▁divers	-11.2392
▁pǝ	-11.2395
▁disparu	-11.2397
▁pouvaient	-11.2397
▁Caïphe	-11.2397
▁Civil	-11.2397
▁DIRECT	-11.2397
▁Elisapet	-11.2397
▁Félix	-11.2397
▁Hwítə	-11.2397
▁Korinto	-11.2397
▁Lévi	-11.2397
▁Mɛlkisedek	-11.2397
▁Samuel	-11.2397
▁Saŋtrafrik	-11.2397
▁Tesalonika	-11.2397
▁Youssou	-11.2397
▁avril	-11.2397
▁bénédiction	-11.2397
▁captivité	-11.2397
▁circoncire	-11.2397
▁croyiez	-11.2397
▁frappé	-11.2397
▁frayeur	-11.2397
▁glorieuse	-11.2397
▁glorieux	-11.2397
▁hébreu	-11.2397
▁introuvable	-11.2397
▁journaliste	-11.2397
▁kaməlûn	-11.2397
▁lépreux	-11.2397
▁marchepied	-11.2397
▁mensonge	-11.2397
▁mémoire	-11.2397
▁mɑmjwi	-11.2397
▁mənthɔ	-11.2397
▁novembre	-11.2397
▁ntsaə	-11.2397
▁prétoire	-11.2397
▁pwá	-11.2397
▁quatrième	-11.2397
▁rameaux	-11.2397
▁silence	-11.2397
▁Écris	-11.2397
▁Venez	-11.2397
▁croyons	-11.2397
▁déposé	-11.2397
▁emporté	-11.2397
▁gǐŋ	-11.2397
▁traîn	-11.2397
▁vôtre	-11.2397
édification	-11.2397
▁culte	-11.2397
roduction	-11.2397
▁continuellement	-11.2397
▁Kaifa	-11.2397
▁folie	-11.2397
▁commettent	-11.2397
▁drame	-11.2397
▁gətso	-11.2397
▁heurte	-11.2397
▁rivage	-11.2397
▁Gouvernement	-11.2397
▁mhwə	-11.2397
▁scène	-11.2397
▁fouetter	-11.2397
▁Vision	-11.2397
▁demain	-11.2397
▁pyəshɑ	-11.2397
▁pourpre	-11.2397
▁chevaux	-11.2397
▁festin	-11.2397
▁renvoyé	-11.2397
▁purification	-11.2397
▁sɑnyə	-11.2397
▁Veillez	-11.2397
▁dʉɔnyə	-11.2397
▁sûnè	-11.2397
▁douleurs	-11.2397
▁Cyr	-11.2397
▁mthap	-11.2397
▁Gwy	-11.2397
▁dispersés	-11.2397
▁gratuitement	-11.2397
gence	-11.2397
▁famine	-11.2397
hiver	-11.2397
▁Syrie	-11.2397
▁accompagné	-11.2397
▁ghàp	-11.2397
▁souvenir	-11.2397
enfuirent	-11.2397
▁Yope	-11.2397
▁introduit	-11.2397
▁Siria	-11.2397
▁renvoya	-11.2397
▁zhwɔ	-11.2397
▁rejette	-11.2398
▁morceaux	-11.2398
▁Sud	-11.2398
▁revint	-11.2398
▁boiteux	-11.2398
▁Gay	-11.2398
▁décidé	-11.2398
vions	-11.2398
▁blé	-11.2399
▁tombèrent	-11.2399
▁ghó	-11.2399
▁voulaient	-11.2399
▁msɛtʉɔ	-11.2399
▁Mfʉ	-11.24
▁cessé	-11.24
▁rompit	-11.24
▁connaissent	-11.24
▁insist	-11.24
▁suivent	-11.2401
▁mɑbʉə	-11.2401
▁tâk	-11.2401
paraître	-11.2401
▁‘	-11.2401
▁11	-11.2401
▁bô	-11.2401
logue	-11.2402
▁portait	-11.2403
▁mettait	-11.2403
▁attendait	-11.2403
▁ntú	-11.2403
▁Fais	-11.2404
▁paraîtra	-11.2404
▁toucher	-11.2404
▁courut	-11.2405
▁pəpɛ	-11.2405
▁Ŋwa	-11.2406
▁Faites	-11.2406
▁secteur	-11.2406
▁travailler	-11.2406
▁pensez	-11.2407
▁hap	-11.2407
▁touche	-11.2407
▁bénit	-11.2408
▁presse	-11.2408
▁CHA	-11.2409
▁efficace	-11.2409
▁incrédulité	-11.2409
▁vécu	-11.2409
▁Mcyə	-11.2409
▁pourvu	-11.2409
▁logement	-11.2409
▁engendré	-11.2409
str	-11.2409
▁apparut	-11.2409
▁KAM	-11.241
▁zhwé	-11.241
▁ordonnances	-11.2412
▁Israélites	-11.2412
▁diŋtə	-11.2412
▁fəfə	-11.2413
▁fí	-11.2413
ignorance	-11.2416
▁hériter	-11.2416
▁attente	-11.2416
▁obéissent	-11.2416
▁sortirent	-11.2417
▁ŋkwítə	-11.2418
▁ŋkwə	-11.2418
▁Noe	-11.2419
▁tenu	-11.2419
▁compter	-11.2419
▁décret	-11.242
▁fǔ	-11.242
▁bâtons	-11.2421
▁habitent	-11.2421
▁diront	-11.2421
▁passions	-11.2422
▁agit	-11.2422
ussions	-11.2423
▁retourné	-11.2423
▁Messi	-11.2424
▁écrire	-11.2424
▁intérêt	-11.2424
▁mcúŋtə	-11.2425
▁tíŋnyə	-11.2427
▁sage	-11.2427
atoire	-11.2429
▁cherchent	-11.243
▁héritiers	-11.2431
▁arrêté	-11.2431
▁civils	-11.2432
▁Combien	-11.2432
▁haptə	-11.2432
▁lever	-11.2432
▁dépouillé	-11.2434
▁entende	-11.2435
▁rendons	-11.2436
▁qualité	-11.2436
▁affliction	-11.2438
ann	-11.2439
▁auxquel	-11.244
▁bvɑnyə	-11.244
▁responsables	-11.2441
▁parut	-11.2441
▁wɔwɔ	-11.2442
▁capable	-11.2443
▁ventre	-11.2446
▁crise	-11.2446
▁vendu	-11.2447
▁nthənthɔm	-11.2448
▁mbǔ	-11.2448
▁pleurs	-11.2449
▁conforme	-11.2453
▁levée	-11.2455
▁gɛla	-11.2457
▁vierges	-11.246
▁dîme	-11.2462
▁injuste	-11.2465
▁sɛnwə	-11.2466
▁prédit	-11.2466
▁swɔ	-11.2467
ves	-11.2468
▁mbɔ	-11.2468
▁Jonas	-11.247
▁textes	-11.247
▁état	-11.2479
▁filets	-11.248
▁révélations	-11.248
▁sanctifiés	-11.248
▁termes	-11.248
▁adorer	-11.2488
▁sentiments	-11.249
▁kǎm	-11.249
van	-11.2491
interroger	-11.2495
▁rep	-11.2503
▁connaissai	-11.2506
▁mzhyə	-11.2506
▁Mich	-11.2512
▁yǒ	-11.2517
▁parfums	-11.2519
▁cach	-11.2519
▁loue	-11.253
ION	-11.2538
▁Achi	-11.2538
▁mfʉm	-11.254
▁condamnés	-11.2543
▁tira	-11.2554
▁libres	-11.2558
BA	-11.257
▁tromp	-11.2579
ff	-11.259
▁lɔm	-11.2594
▁signes	-11.2598
adorèrent	-11.2604
hé	-11.2604
▁Kəlá	-11.2606
▁Ŋkh	-11.2609
éga	-11.2614
▁tribus	-11.2618
éré	-11.2619
▁annoncée	-11.2619
▁véritables	-11.2628
▁bútə	-11.2638
▁désirs	-11.2643
▁dô	-11.2643
▁prom	-11.266
▁Mɔ	-11.266
▁lune	-11.2667
▁action	-11.2673
sion	-11.2678
▁sauvera	-11.2701
▁lis	-11.2722
▁vol	-11.2725
▁léŋ	-11.2733
âp	-11.2734
▁mnəŋ	-11.275
obo	-11.2752
▁droits	-11.2758
▁quitter	-11.2758
▁pardonner	-11.2763
aires	-11.2774
▁mjyə	-11.2788
▁w	-11.2791
attacher	-11.2795
▁premières	-11.2798
sia	-11.2799
▁propos	-11.2808
▁Nth	-11.281
▁yak	-11.2834
▁ordonna	-11.2837
ios	-11.2839
14	-11.284
attend	-11.2855
GUŊ	-11.2858
▁Méd	-11.2862
▁séduise	-11.2868
ouvrit	-11.287
6	-11.2875
abaiss	-11.2878
▁besoins	-11.2878
kû	-11.2901
iers	-11.2905
▁noms	-11.2926
ctions	-11.2952
▁souhait	-11.2954
Il	-11.2974
ncer	-11.2983
▁dispute	-11.2986
▁Évangile	-11.3022
sée	-11.3024
▁raconte	-11.3025
▁répond	-11.3028
llé	-11.3035
▁mth	-11.3058
assur	-11.3061
▁compr	-11.3063
àk	-11.3065
▁repent	-11.3065
▁assise	-11.3101
lation	-11.3111
▁mcɔ	-11.3116
AM	-11.3133
mghɔm	-11.3151
▁yəmu	-11.3166
dée	-11.3171
▁lwɔk	-11.3217
▁reçue	-11.3219
kwɛ	-11.3226
▁établie	-11.3226
▁RE	-11.3227
▁md	-11.3233
▁rentr	-11.3248
▁abord	-11.326
▁br	-11.3262
▁monte	-11.3266
▁serv	-11.3272
pʉ	-11.3272
TƏ	-11.3287
eusse	-11.3308
▁méchant	-11.3324
des	-11.3348
▁relève	-11.3358
▁Ntə	-11.3367
▁délivre	-11.337
▁tienne	-11.3373
▁excellent	-11.3401
▁Vo	-11.3405
raient	-11.3408
▁retourne	-11.3409
ï	-11.341
ive	-11.3418
▁dispos	-11.3423
▁Qua	-11.3436
▁form	-11.3438
▁29	-11.3457
▁découvert	-11.3466
▁ôte	-11.3488
cherchant	-11.3496
W	-11.3502
▁régi	-11.351
gɛ	-11.3511
▁quitte	-11.3516
ateur	-11.3518
▁Mts	-11.353
▁assemblé	-11.3538
▁Peti	-11.3546
▁aisé	-11.3548
▁mkw	-11.3555
▁permet	-11.3558
▁contestation	-11.3561
▁attaché	-11.3563
▁texte	-11.3564
▁lampe	-11.3566
▁Jona	-11.3567
▁pharisien	-11.3568
▁seuls	-11.3569
titʉsiɔ	-11.3572
ienne	-11.3573
abondance	-11.3577
dessous	-11.358
Isaac	-11.3581
éclat	-11.3582
alliance	-11.3583
▁24	-11.3583
Est	-11.3583
▁égal	-11.3584
shu	-11.3585
accuser	-11.3585
port	-11.3589
gɑ	-11.359
lɛ	-11.3603
wé	-11.3606
▁vas	-11.3606
tú	-11.3607
▁écrits	-11.3608
▁Yu	-11.3608
pwɔ	-11.3608
▁gú	-11.3612
▁Aussi	-11.3613
▁shɔ	-11.3615
▁résist	-11.3633
oppose	-11.3633
ommunication	-11.3636
▁périsse	-11.3636
CO	-11.3637
intérieur	-11.3638
▁régn	-11.3638
ournal	-11.364
▁doive	-11.364
wɛ	-11.3643
▁bvɔ	-11.3644
ivraie	-11.3645
▁frappa	-11.3645
PR	-11.3646
▁Niger	-11.3646
épreuve	-11.3646
▁profession	-11.3646
▁mzhwɔp	-11.3646
▁Afr	-11.3647
ᵾ	-11.3647
suscité	-11.3647
▁imprudent	-11.3647
▁judiciaire	-11.3647
▁néglig	-11.3647
▁problème	-11.3647
▁sincère	-11.3647
Puissant	-11.3647
avarice	-11.3647
instruire	-11.3647
ormément	-11.3647
écrièrent	-11.3647
▁Bethléhem	-11.3647
▁Bienvenu	-11.3647
▁Bɛtəlehɛm	-11.3647
▁Cilicie	-11.3647
▁Cypre	-11.3647
▁Dieudonné	-11.3647
▁Expression	-11.3647
▁Galata	-11.3647
▁JÉSUS	-11.3647
▁Kaktʉɔ	-11.3647
▁Kipro	-11.3647
▁Kɛbəŋ	-11.3647
▁Markusi	-11.3647
▁Mbouda	-11.3647
▁Mission	-11.3647
▁Nthʉɔtʉɔ	-11.3647
▁Olembe	-11.3647
▁Peghama	-11.3647
▁Sûnè	-11.3647
▁Tuesday	-11.3647
▁Yawùdè	-11.3647
▁abondamment	-11.3647
▁cinquante	-11.3647
▁commissariat	-11.3647
▁contraint	-11.3647
▁craindre	-11.3647
▁difficulté	-11.3647
▁dʉmnyətʉmnyə	-11.3647
▁essay	-11.3647
▁forteresse	-11.3647
▁fraude	-11.3647
▁impôts	-11.3647
▁individu	-11.3647
▁inutile	-11.3647
▁jalousie	-11.3647
▁mkǔŋgó	-11.3647
▁modèle	-11.3647
▁mtuŋdyə	-11.3647
▁poitrine	-11.3647
▁pouvons	-11.3647
▁prudent	-11.3647
▁prémices	-11.3647
▁religion	-11.3647
▁reprends	-11.3647
▁reprit	-11.3647
▁rédemption	-11.3647
▁réputation	-11.3647
▁sociaux	-11.3647
▁soufre	-11.3647
▁sèche	-11.3647
▁territoire	-11.3647
▁ŋkǎp	-11.3647
▁ŋwâlǎ	-11.3647
▁Tetang	-11.3647
▁décision	-11.3647
▁fassiez	-11.3647
▁gueule	-11.3647
▁mpfɑ	-11.3647
▁renonce	-11.3647
▁ceinture	-11.3647
▁exercé	-11.3647
▁froment	-11.3647
▁secouru	-11.3647
▁échange	-11.3647
MFAꞋ	-11.3647
▁possession	-11.3647
▁sanctifie	-11.3647
▁absent	-11.3647
▁tenir	-11.3647
▁légion	-11.3647
▁dzɑ	-11.3647
▁mkɛbəŋ	-11.3647
▁pécher	-11.3647
▁comprennent	-11.3647
▁mtyɔ	-11.3647
▁mtwɔ	-11.3647
▁délier	-11.3647
▁simple	-11.3647
▁kǝ	-11.3647
▁infirmités	-11.3647
▁Trois	-11.3647
▁suspect	-11.3647
▁graves	-11.3647
▁Officiel	-11.3647
ajor	-11.3647
▁26	-11.3647
▁dzam	-11.3647
▁Nke	-11.3647
▁fuite	-11.3647
▁aumônes	-11.3648
▁adressée	-11.3648
▁nyədwɔp	-11.3648
▁Atangana	-11.3648
▁poussi	-11.3648
▁vendredi	-11.3648
GO	-11.3648
▁SEM	-11.3648
éputé	-11.3648
▁Rome	-11.3648
▁châtiment	-11.3648
▁zhwya	-11.3648
▁chassa	-11.3648
▁107	-11.3648
▁détail	-11.3648
▁pluie	-11.3649
▁Meva	-11.3649
▁fleur	-11.3649
▁Jude	-11.3649
eusement	-11.3649
enverrai	-11.3649
▁voudrais	-11.3649
▁nthɛshwə	-11.3649
▁reins	-11.365
impur	-11.365
▁bǝ	-11.365
▁consist	-11.365
▁préparation	-11.365
▁mépris	-11.365
élèvera	-11.3651
▁répudier	-11.3651
▁kuŋgǒ	-11.3651
▁apprenant	-11.3651
▁grince	-11.3652
▁craignaient	-11.3652
kwa	-11.3652
▁pleurez	-11.3652
dispositions	-11.3653
▁pǐ	-11.3654
▁publiquement	-11.3654
▁Kana	-11.3654
▁hɑhɑ	-11.3655
OUS	-11.3655
▁précipité	-11.3655
▁prêchons	-11.3655
▁détruire	-11.3655
▁Priez	-11.3656
▁chanté	-11.3656
▁Afrika	-11.3657
pouvant	-11.3657
▁Noé	-11.3657
▁passa	-11.3657
▁08	-11.3657
▁partagé	-11.3657
▁bǎyá	-11.3658
▁assure	-11.3658
▁dieux	-11.3658
▁sédition	-11.3658
▁kwà	-11.3659
▁fʉmnyə	-11.3659
▁laver	-11.366
▁malice	-11.366
▁Mcǔ	-11.366
▁savent	-11.3661
▁Anti	-11.3662
▁parvenus	-11.3664
▁cyəcyə	-11.3664
▁vivent	-11.3666
▁cyá	-11.3666
▁vyə	-11.3667
air	-11.3667
▁regardez	-11.3668
▁ressuscitent	-11.3669
▁video	-11.367
▁pire	-11.367
ptsʉ	-11.3671
▁obéir	-11.3671
▁faisaient	-11.3672
▁cria	-11.3673
▁marchent	-11.3673
nthi	-11.3673
▁consolés	-11.3675
▁magistrats	-11.3675
▁pêcheurs	-11.3675
▁abus	-11.3676
▁institutions	-11.3676
▁mkhʉ	-11.3678
▁tribut	-11.3678
fiŋ	-11.3679
▁vocation	-11.368
opération	-11.3681
▁bipǐ	-11.3681
tʉm	-11.3682
▁songe	-11.3682
▁ŋkhá	-11.3683
▁000	-11.3685
▁tonnerres	-11.3686
▁demandant	-11.3687
▁étrangères	-11.3688
▁persuad	-11.3689
tendant	-11.3694
mkǒ	-11.3696
▁public	-11.3696
▁acheté	-11.3697
accomplissement	-11.3697
▁brigands	-11.3697
▁projets	-11.3697
▁doux	-11.3699
▁fǒ	-11.3703
▁arrestation	-11.3703
▁Orange	-11.3704
▁pətá	-11.3708
▁avocats	-11.3708
▁complices	-11.3708
▁exposé	-11.3709
▁entendent	-11.3709
▁blasphémé	-11.3711
zə	-11.3714
▁dessous	-11.3714
▁mǐŋ	-11.3714
shû	-11.3714
▁ntwɔk	-11.3715
▁relâcher	-11.3716
▁ouvrit	-11.372
▁gwɔp	-11.3721
▁ŋkhiŋ	-11.3722
▁organisation	-11.3723
▁Afrique	-11.3723
▁Mù	-11.3724
tention	-11.3725
▁khi	-11.3725
▁vʉsi	-11.3725
nne	-11.3727
▁publics	-11.3729
▁nettoyé	-11.373
▁lampes	-11.373
▁Nko	-11.3735
▁oint	-11.3737
▁Elo	-11.3738
▁injustes	-11.3739
mghəghʉɔ	-11.374
▁éloignés	-11.3742
▁deniers	-11.3742
▁gré	-11.3742
▁paille	-11.3743
tiques	-11.3749
▁cá	-11.3751
▁envoyer	-11.3759
▁Nthʉ	-11.3762
▁kwɔk	-11.3765
▁robes	-11.3765
▁centre	-11.3768
motion	-11.377
VO	-11.3776
▁déroulé	-11.3776
écouter	-11.3781
▁pɑpʉ	-11.3785
▁ordres	-11.3786
▁parfaits	-11.3787
▁confesse	-11.3788
▁comparaître	-11.3796
▁excellente	-11.381
▁arrivées	-11.382
▁fermée	-11.3825
▁Luc	-11.383
▁justifier	-11.3833
▁ador	-11.3834
▁No	-11.3846
anim	-11.3856
▁nuées	-11.3859
▁vains	-11.3862
▁mətw	-11.3868
▁soins	-11.3869
▁Vi	-11.3879
▁marié	-11.389
▁bù	-11.3897
accord	-11.3915
▁remport	-11.3917
▁environs	-11.3934
pu	-11.3938
▁pwatə	-11.3942
▁livrés	-11.3945
▁amenèrent	-11.3945
▁remplir	-11.3946
▁entendue	-11.3947
▁baptiser	-11.3948
ssement	-11.3952
▁bɔmtə	-11.3954
inaire	-11.3955
ssons	-11.3956
▁produits	-11.3956
▁plat	-11.3967
vent	-11.397
▁exc	-11.397
▁accordé	-11.3974
▁tués	-11.3985
sɛ	-11.3985
▁mette	-11.3989
▁merveille	-11.3992
▁mí	-11.3995
sap	-11.4008
UR	-11.4009
oir	-11.4012
▁bɔk	-11.4014
▁mjyədyə	-11.4024
servent	-11.4033
▁tuera	-11.4035
oui	-11.4041
▁chant	-11.4043
▁ləmnyə	-11.4044
issait	-11.4045
hier	-11.405
▁dǔ	-11.4065
▁descende	-11.4067
▁Tes	-11.4073
▁chargée	-11.4091
iens	-11.4106
38	-11.4107
ide	-11.4116
▁Ré	-11.4124
twɔk	-11.4125
▁mǎ	-11.4133
▁parties	-11.4143
▁avis	-11.4163
usse	-11.4174
▁haï	-11.4176
riez	-11.4177
DYƏ	-11.4178
ʉə	-11.4222
▁mʉ	-11.4248
▁compris	-11.4257
▁trouvés	-11.4263
▁violent	-11.4268
twa	-11.4273
▁représent	-11.4295
".	-11.4305
▁Kam	-11.4309
▁croiss	-11.4311
▁propose	-11.434
▁lù	-11.434
étonn	-11.4354
▁prophétise	-11.4358
▁he	-11.4375
▁mshɛ	-11.4376
embarqu	-11.4384
▁Tʉ	-11.4398
▁réjoui	-11.443
▁déclar	-11.4459
▁effets	-11.4469
▁Tɔ	-11.4474
▁sǎ	-11.4476
▁recouvre	-11.4491
4)	-11.4509
yəŋ	-11.4568
▁Ci	-11.4573
▁jugera	-11.458
▁Jul	-11.4614
TION	-11.4618
▁fil	-11.4625
▁trahi	-11.4629
▁destiné	-11.4668
▁rapporta	-11.4678
▁prosterna	-11.4685
ures	-11.4693
▁accuse	-11.4702
▁moissonner	-11.4716
ES	-11.4719
redi	-11.4724
▁doute	-11.4727
▁tombera	-11.4728
kw	-11.4746
asse	-11.4758
approche	-11.4761
▁participe	-11.4779
▁nés	-11.4794
wǐŋ	-11.4802
hə	-11.4809
▁âgé	-11.4813
▁sî	-11.4815
tɛ	-11.4816
MO	-11.4818
▁pardonne	-11.4819
ghʉɔ	-11.4819
▁cher	-11.4822
ME	-11.4829
MA	-11.4844
son	-11.486
▁tourment	-11.4894
▁lapid	-11.4906
▁joue	-11.4906
wák	-11.4909
▁écouter	-11.4923
erreur	-11.4931
▁100	-11.4933
▁ardent	-11.494
▁laiss	-11.4942
issez	-11.4943
bǔ	-11.4959
▁jeûne	-11.4969
▁posséd	-11.4976
habit	-11.4979
puŋ	-11.4979
▁appren	-11.4988
▁enceinte	-11.4989
▁preuve	-11.4989
▁sauvage	-11.4991
▁vierge	-11.4993
▁meurtre	-11.4994
▁étonné	-11.4995
▁voul	-11.4998
▁richesse	-11.4999
arche	-11.5004
activité	-11.5004
impureté	-11.5004
établir	-11.5005
▁maltrait	-11.5005
étoile	-11.5006
▁mnɔ	-11.5007
avocat	-11.5007
évangile	-11.5007
nɔmlěŋ	-11.5008
ŋkho	-11.5009
nthənthɔm	-11.5009
élection	-11.501
▁source	-11.5012
▁vus	-11.5012
enquête	-11.5013
Car	-11.5013
épouse	-11.5014
gò	-11.5018
entendez	-11.5018
ivre	-11.5018
onc	-11.502
mment	-11.5022
▁gagn	-11.5023
aurez	-11.5023
étein	-11.5025
tôt	-11.5029
▁PƏ	-11.5029
▁pʉɔtʉ	-11.5033
▁mcú	-11.5033
▁Zhə	-11.5038
affection	-11.5039
aisse	-11.5048
▁évident	-11.505
▁message	-11.5051
píŋ	-11.5054
▁retire	-11.5055
tiŋ	-11.5059
dó	-11.5061
▁loge	-11.5062
▁vîn	-11.5065
▁délibér	-11.5065
▁soutien	-11.5068
;)	-11.5069
affermi	-11.5071
bə	-11.5073
Z	-11.5073
pɔp	-11.5074
▁rassasi	-11.5074
remière	-11.5074
▁procè	-11.5075
opprobre	-11.5075
impudicité	-11.5075
▁Entre	-11.5075
QUE	-11.5075
*	-11.5075
▁Frid	-11.5075
PUBLI	-11.5075
autrui	-11.5075
employé	-11.5075
identité	-11.5075
opinion	-11.5075
▁2017	-11.5075
▁Bethsaïda	-11.5075
▁Betsaida	-11.5075
▁Beɛlzəbul	-11.5075
▁Béelzébul	-11.5075
▁Corinthe	-11.5075
▁Défense	-11.5075
▁Kirena	-11.5075
▁Kreta	-11.5075
▁Laodikia	-11.5075
▁Madeleine	-11.5075
▁Mɑmjwi	-11.5075
▁NOZO	-11.5075
▁Narcisse	-11.5075
▁Néanmoins	-11.5075
▁Olivə	-11.5075
▁Particulier	-11.5075
▁Sécurité	-11.5075
▁Thessalonique	-11.5075
▁VIH	-11.5075
▁Yeriko	-11.5075
▁apporté	-11.5075
▁assurance	-11.5075
▁baptisait	-11.5075
▁bonheur	-11.5075
▁cohorte	-11.5075
▁communiqué	-11.5075
▁constance	-11.5075
▁contact	-11.5075
▁convenable	-11.5075
▁conçu	-11.5075
▁célébr	-11.5075
▁faudra	-11.5075
▁favorable	-11.5075
▁fidélité	-11.5075
▁humble	-11.5075
▁hwyə	-11.5075
▁incorruptible	-11.5075
▁intelligent	-11.5075
▁malédiction	-11.5075
▁murmuraient	-11.5075
▁nthɛmnɛ	-11.5075
▁parcouru	-11.5075
▁pfú	-11.5075
▁piège	-11.5075
▁plénitude	-11.5075
▁propriétaire	-11.5075
▁précieux	-11.5075
▁rouge	-11.5075
▁ruine	-11.5075
▁règle	-11.5075
▁réveillé	-11.5075
▁sièges	-11.5075
▁suffit	-11.5075
▁suivaient	-11.5075
▁tumulte	-11.5075
▁tétrarque	-11.5075
▁vengeance	-11.5075
▁vinaigre	-11.5075
▁zélé	-11.5075
arrêta	-11.5075
▁1990	-11.5075
▁Priska	-11.5075
▁Très	-11.5075
▁dirige	-11.5075
▁donnèrent	-11.5075
▁détruis	-11.5075
▁enrichis	-11.5075
▁grec	-11.5075
▁sufra	-11.5075
▁Christian	-11.5075
▁Massa	-11.5075
▁Tsaə	-11.5075
▁acquis	-11.5075
▁clef	-11.5075
▁mzhwə	-11.5075
▁séduir	-11.5075
▁Byanyə	-11.5075
▁fardeau	-11.5075
▁langage	-11.5075
▁mérite	-11.5075
▁permit	-11.5075
**	-11.5075
▁Meboutou	-11.5075
▁chiens	-11.5075
▁fraternel	-11.5075
▁commettra	-11.5075
▁profit	-11.5075
▁tabac	-11.5075
▁milliers	-11.5075
▁désordre	-11.5075
▁patrie	-11.5075
▁libéralité	-11.5075
▁métier	-11.5075
▁sobres	-11.5075
▁assemblez	-11.5076
▁mghé	-11.5076
▁cheval	-11.5076
▁apprennent	-11.5076
▁souffrît	-11.5076
CAB	-11.5076
▁kwǐnthɛ	-11.5076
▁taxi	-11.5076
▁secours	-11.5076
▁raisonnable	-11.5076
association	-11.5076
astas	-11.5076
▁Libi	-11.5076
▁devaient	-11.5076
▁instructions	-11.5076
▁proposition	-11.5076
▁semeur	-11.5076
▁roc	-11.5076
▁tsǎ	-11.5076
▁Obama	-11.5076
▁délié	-11.5076
▁ŋkuŋ	-11.5076
▁arrivèrent	-11.5076
▁SERA	-11.5076
ouvrier	-11.5076
▁mnyədwɔp	-11.5077
▁wǎ	-11.5077
▁estimé	-11.5077
▁pareille	-11.5077
ssistants	-11.5077
▁abaissé	-11.5077
▁assuré	-11.5077
▁waza	-11.5077
▁magnifique	-11.5077
▁marchait	-11.5077
▁souffrons	-11.5077
▁prions	-11.5077
▁perles	-11.5077
▁ghú	-11.5077
▁prostituée	-11.5077
▁tɛshwə	-11.5077
▁vivons	-11.5077
étonnement	-11.5078
▁décède	-11.5078
▁joug	-11.5078
▁nthya	-11.5078
▁tremblant	-11.5078
▁mariage	-11.5078
tísuŋ	-11.5078
▁něné	-11.5079
▁plante	-11.5079
▁salué	-11.5079
▁départ	-11.5079
▁reconnurent	-11.5079
▁Yɑ	-11.5079
▁lǔsi	-11.5079
▁avantage	-11.508
▁bê	-11.508
▁renvers	-11.508
▁endure	-11.5081
▁tamdzə	-11.5081
▁pardonnez	-11.5081
▁Juste	-11.5081
▁Tchuent	-11.5081
▁Administration	-11.5081
▁nthʉɔthə	-11.5081
▁mcúŋ	-11.5081
▁Laissez	-11.5081
▁discerner	-11.5081
▁visité	-11.5082
▁Fɑ	-11.5082
▁glorifions	-11.5082
▁uniquement	-11.5082
enfuit	-11.5082
▁retirer	-11.5082
▁demandaient	-11.5084
▁français	-11.5085
▁supérieur	-11.5085
empl	-11.5085
▁éclatant	-11.5085
▁journée	-11.5086
▁ŋkhó	-11.5086
▁trahit	-11.5086
▁transgression	-11.5087
▁Soit	-11.5087
idole	-11.5088
▁mghətsó	-11.5088
▁salutation	-11.5088
▁ŋkwyatə	-11.5089
▁Réjouiss	-11.5089
▁pleurant	-11.5089
▁puits	-11.5089
▁Sou	-11.509
▁Gʉ	-11.509
gwí	-11.509
▁Ambassadeur	-11.5091
▁Étienne	-11.5091
▁Etoudi	-11.5091
▁tellement	-11.5092
▁suivre	-11.5092
▁descendait	-11.5092
▁pressé	-11.5093
▁mtâ	-11.5093
▁mangeaient	-11.5093
▁gapdzʉ	-11.5093
supportable	-11.5093
▁montrerai	-11.5094
▁nthɔmthə	-11.5094
▁(1	-11.5094
▁bàtə	-11.5095
mgʉg	-11.5095
▁souvin	-11.5095
▁tâm	-11.5096
▁Hâ	-11.5098
▁clair	-11.5099
▁03	-11.51
▁camp	-11.5101
▁Aaron	-11.5101
▁viendrai	-11.5101
▁Apollos	-11.5102
▁Nata	-11.5103
▁NO	-11.5104
▁regardait	-11.5104
séŋ	-11.5104
▁ghɛ	-11.5105
▁passeront	-11.5107
▁attristés	-11.5108
▁nôtres	-11.5108
▁Mtsʉ	-11.5108
▁blessé	-11.5109
▁mariée	-11.5109
▁restés	-11.5109
▁anti	-11.511
▁mhwi	-11.5111
▁demandez	-11.5111
▁faiblesse	-11.5112
▁ŋkɛ	-11.5112
▁levèrent	-11.5112
▁Hu	-11.5113
▁msɔk	-11.5114
▁rejetée	-11.5114
▁tú	-11.5115
▁assujettis	-11.5116
▁sonna	-11.5117
▁glorifient	-11.512
▁Ceci	-11.5122
Et	-11.5124
▁apporter	-11.5124
33	-11.5125
▁payé	-11.5127
ƏŊ	-11.513
▁survenue	-11.5131
▁aimez	-11.5133
▁emploi	-11.5133
▁nthútə	-11.5133
gues	-11.5135
▁sol	-11.5136
nou	-11.5136
▁midi	-11.5138
écart	-11.5139
▁Grande	-11.5139
▁syaptə	-11.514
▁écoutent	-11.514
▁mŋkho	-11.5141
▁nɔmlěŋ	-11.5143
▁sers	-11.5144
heureuse	-11.5146
▁conducteurs	-11.5147
▁meurtriers	-11.5147
▁persécutés	-11.5147
▁boit	-11.5148
▁ghʉɔ	-11.5154
▁Sina	-11.5155
dz	-11.5156
▁Mɔk	-11.5159
▁jí	-11.5161
▁bipi	-11.5162
▁fassent	-11.5163
▁injustice	-11.5164
ntə	-11.5168
▁tǒ	-11.5171
▁mbú	-11.5173
▁09	-11.5178
▁tourner	-11.5178
▁suc	-11.5178
fí	-11.5179
▁ôtera	-11.5182
▁coupé	-11.5182
▁écrite	-11.5184
▁səŋwi	-11.5184
▁dedans	-11.5185
▁éleva	-11.5187
▁actes	-11.5187
▁indique	-11.5191
▁demeurent	-11.5192
▁espère	-11.5195
▁ŋkʉ	-11.5195
▁fonds	-11.5198
mtɔ	-11.5199
▁laissez	-11.52
▁Aba	-11.5201
asoŋ	-11.5202
▁entrera	-11.5204
▁tiŋtə	-11.5206
▁khiŋ	-11.5207
mcùŋ	-11.5207
▁enseignes	-11.5207
▁empêché	-11.5209
▁confier	-11.521
▁mûsə	-11.5212
▁MA	-11.5214
▁certaines	-11.5215
▁avènement	-11.5216
▁bʉɔtʉ	-11.5219
ɔn	-11.5224
amène	-11.5224
▁Ŋkha	-11.5226
écha	-11.5228
▁Là	-11.5228
▁cré	-11.5238
▁scandales	-11.5238
▁tsʉywə	-11.5244
▁mŋkhə	-11.5247
▁opère	-11.5249
gʉ	-11.5249
tré	-11.5253
▁mghɛfa	-11.526
▁arbres	-11.5264
▁lier	-11.5267
▁ŋwák	-11.5279
▁pɑpùŋ	-11.5281
mtsʉ	-11.5286
▁découverte	-11.5288
▁entrent	-11.5288
▁livra	-11.529
▁moto	-11.5294
▁éclairé	-11.5296
▁passent	-11.5296
oué	-11.5297
▁sommeil	-11.5297
angm	-11.5298
▁mshyə	-11.5305
▁veau	-11.5315
▁saintes	-11.5315
▁questions	-11.532
▁meilleure	-11.5327
▁Sar	-11.5328
▁manifestés	-11.5334
▁liés	-11.5344
əkú	-11.5345
▁âgée	-11.5346
▁prêcher	-11.5357
siɔŋ	-11.5358
▁retourner	-11.5363
non	-11.5364
isla	-11.5367
▁guérison	-11.5368
▁Fi	-11.5374
▁Sont	-11.5381
▁Lé	-11.5382
tha	-11.5384
▁pleura	-11.5385
enfants	-11.5387
▁tuèrent	-11.5387
▁méchante	-11.5389
▁Tak	-11.541
▁Générale	-11.5417
mail	-11.5418
tik	-11.5419
▁boirai	-11.5425
▁cùŋ	-11.5426
▁həŋ	-11.5433
▁étais	-11.544
▁búŋ	-11.544
▁éco	-11.5448
interrogea	-11.5456
▁sortira	-11.5464
▁ignor	-11.5466
ŋkə	-11.5466
ntʉɔ	-11.5467
▁traité	-11.5471
▁Cam	-11.548
ozo	-11.5484
tique	-11.5485
▁rassembler	-11.5486
▁sǔ	-11.5491
▁fondé	-11.5504
▁passés	-11.551
rol	-11.5546
TO	-11.5552
▁təŋlá	-11.5561
▁glorifierai	-11.5566
▁court	-11.561
▁lin	-11.5611
▁considéré	-11.5611
▁vivante	-11.5612
▁ho	-11.5623
poli	-11.5625
CI	-11.5628
▁barques	-11.5638
▁hɔm	-11.564
▁venues	-11.5642
oct	-11.5644
aide	-11.5648
▁tables	-11.5649
école	-11.5665
▁mgha	-11.5668
▁50	-11.567
▁70	-11.5679
▁croira	-11.5682
olo	-11.5682
▁coupes	-11.5695
▁eau	-11.57
▁discour	-11.5708
yâp	-11.5715
▁permettr	-11.572
▁Pri	-11.5721
appliqu	-11.5724
aɛl	-11.5729
▁ŋká	-11.5732
▁lû	-11.5732
allai	-11.5733
▁commune	-11.5741
ncore	-11.5759
uriez	-11.5777
▁trouvée	-11.5788
▁trônes	-11.5789
▁adress	-11.58
▁demeuré	-11.5811
▁Él	-11.5817
▁dépouille	-11.582
▁Li	-11.5822
▁devenue	-11.5825
cept	-11.5825
▁direct	-11.5831
▁forts	-11.5834
aison	-11.5873
▁invoqu	-11.5874
-1	-11.5874
▁mts	-11.5881
▁Chin	-11.5897
54	-11.5934
▁souhaite	-11.5938
sants	-11.5942
jeter	-11.5988
▁interrog	-11.5995
uf	-11.6004
kʉ	-11.6018
▁Aya	-11.602
teurs	-11.6029
▁croir	-11.6036
▁prophétis	-11.6037
iro	-11.6041
▁trouv	-11.6053
YƏ	-11.6062
LES	-11.6063
lance	-11.6073
urions	-11.608
▁Pr	-11.6088
▁chemins	-11.6109
ndation	-11.6132
▁impos	-11.6152
▁vraie	-11.6162
▁poursuiv	-11.6162
▁gardes	-11.6177
▁converti	-11.6191
▁dévo	-11.6194
▁couru	-11.6198
eut	-11.621
▁rencontra	-11.6216
▁crée	-11.6222
▁Ng	-11.6227
▁détourne	-11.6249
▁pleure	-11.6255
▁baptise	-11.6345
obl	-11.6364
▁khuŋ	-11.6369
▁Ndo	-11.6381
nel	-11.6399
▁confié	-11.6407
▁désire	-11.6423
▁Voi	-11.6429
▁révélé	-11.6435
▁shá	-11.6438
per	-11.6445
▁Lors	-11.6448
cript	-11.6454
rement	-11.6455
assi	-11.6476
usine	-11.6484
mfa	-11.65
▁fermé	-11.6505
▁publi	-11.6507
▁verrai	-11.6519
▁ret	-11.6522
▁prophétiser	-11.6528
▁ha	-11.6529
squels	-11.6542
uma	-11.6547
▁secou	-11.6561
▁ressemble	-11.658
▁mleŋ	-11.6591
écoute	-11.6594
▁criminel	-11.6596
▁resplendi	-11.6616
zhwenyə	-11.6618
▁passera	-11.6618
▁enverra	-11.6627
▁recommand	-11.6627
▁blasphém	-11.6642
kǎm	-11.6643
▁tombé	-11.6643
▁compar	-11.665
▁Pharisien	-11.6656
▁campagne	-11.6656
▁démoniaque	-11.6656
▁bourgade	-11.6656
▁but	-11.6657
▁chandelier	-11.6657
▁persécution	-11.6657
▁présumé	-11.6657
▁souillure	-11.6657
▁emmen	-11.6657
▁conducteur	-11.6658
▁meurtrier	-11.6658
▁persécuté	-11.6658
pú	-11.6659
▁complice	-11.6659
▁péager	-11.6662
▁marqué	-11.6665
▁difficile	-11.6666
▁sergent	-11.6668
obéissance	-11.6671
AU	-11.6671
hôpital	-11.6673
▁relâche	-11.6673
enfer	-11.6673
thá	-11.6674
ânon	-11.6675
bvɑnyə	-11.6677
▁Cú	-11.6677
vingt	-11.6677
vɔk	-11.6677
ET	-11.6677
enseignant	-11.6678
envoya	-11.6678
éprouver	-11.6679
▁couvert	-11.6679
sʉəsʉə	-11.6679
âge	-11.668
usage	-11.6681
emploi	-11.6681
▁nwɔ	-11.6682
càm	-11.6683
fois	-11.6684
▁ŋwǎ	-11.6687
▁enseveli	-11.6688
gó	-11.6693
injuri	-11.6695
▁Galiléen	-11.6699
voir	-11.6699
▁oubli	-11.6699
veau	-11.6702
▁précis	-11.6702
▁souven	-11.6703
ivision	-11.6707
écret	-11.6707
pnyə	-11.6711
kú	-11.6716
▁profond	-11.6716
▁retenu	-11.6716
midi	-11.6717
kbɔ	-11.6717
▁tranchant	-11.6718
▁réservé	-11.6718
▁Herod	-11.672
rice	-11.672
uellement	-11.6722
▁shwi	-11.6722
▁Nation	-11.6724
▁tsi	-11.6726
éprouv	-11.6728
▁nourri	-11.6729
lément	-11.673
renda	-11.673
▁Awa	-11.6731
onnaie	-11.6732
▁croie	-11.6733
▁Zh	-11.6735
▁discern	-11.6735
▁chauff	-11.6737
aucune	-11.6737
▁shʉm	-11.6738
ND	-11.6738
▁détach	-11.6738
▁avocat	-11.6739
▁məbʉ	-11.674
compagne	-11.6741
▁morceau	-11.6741
▁officiel	-11.6741
iŋnthʉm	-11.6741
▁ira	-11.6741
assemble	-11.6741
instruction	-11.6741
▁console	-11.6742
▁franc	-11.6742
UN	-11.6742
▁2011	-11.6742
amélior	-11.6742
interpell	-11.6742
Ɔ	-11.6742
ologie	-11.6742
étrange	-11.6742
▁Africa	-11.6742
▁Rodrigue	-11.6742
▁kidnapp	-11.6742
Hérodias	-11.6742
LÁ	-11.6742
UNDP	-11.6742
absteni	-11.6742
adège	-11.6742
arrêter	-11.6742
aspersion	-11.6742
hypocrisie	-11.6742
impiété	-11.6742
indignation	-11.6742
système	-11.6742
écarlate	-11.6742
▁1970	-11.6742
▁1972	-11.6742
▁1979	-11.6742
▁Aleksandrə	-11.6742
▁Aquilas	-11.6742
▁Artem	-11.6742
▁Atenya	-11.6742
▁Céphas	-11.6742
▁Fəlaŋsí	-11.6742
▁Galatie	-11.6742
▁Hosanna	-11.6742
▁Hozana	-11.6742
▁Ikonya	-11.6742
▁Kolonɛ	-11.6742
▁Laodicée	-11.6742
▁Lidia	-11.6742
▁Listra	-11.6742
▁MRC	-11.6742
▁Matthieu	-11.6742
▁Nathanaël	-11.6742
▁Ngarbuh	-11.6742
▁ONG	-11.6742
▁ROI	-11.6742
▁Rahab	-11.6742
▁Yawud	-11.6742
▁Zabulon	-11.6742
▁accusateurs	-11.6742
▁anathème	-11.6742
▁anglophone	-11.6742
▁arrière	-11.6742
▁bœuf	-11.6742
▁capitaine	-11.6742
▁compagnie	-11.6742
▁consacr	-11.6742
▁construit	-11.6742
▁contempl	-11.6742
▁corruptible	-11.6742
▁cìcə	-11.6742
▁dommage	-11.6742
▁donnât	-11.6742
▁défaut	-11.6742
▁examiné	-11.6742
▁flamme	-11.6742
▁flûte	-11.6742
▁ghǐŋ	-11.6742
▁grenier	-11.6742
▁innocent	-11.6742
▁irréprochable	-11.6742
▁jardin	-11.6742
▁kaməlûm	-11.6742
▁kolóna	-11.6742
▁lèvres	-11.6742
▁minuit	-11.6742
▁miséricordieux	-11.6742
▁mpuŋtsé	-11.6742
▁orgueilleux	-11.6742
▁patron	-11.6742
▁persévère	-11.6742
▁progrès	-11.6742
▁prétexte	-11.6742
▁quatorz	-11.6742
▁rocher	-11.6742
▁rébellion	-11.6742
▁sanctuaire	-11.6742
▁sanhédrin	-11.6742
▁servitude	-11.6742
▁séparatistes	-11.6742
▁trahissait	-11.6742
▁urbain	-11.6742
▁victoire	-11.6742
▁ŋkùŋŋkǔŋ	-11.6742
▁Bînàm	-11.6742
▁Matio	-11.6742
▁Siméon	-11.6742
▁bʉəpǒ	-11.6742
▁misérable	-11.6742
▁npfɑ	-11.6742
▁shinua	-11.6742
▁taureaux	-11.6742
▁Ŋwɛnyə	-11.6742
▁ŋkhǎp	-11.6742
issue	-11.6742
▁mêlé	-11.6742
▁paniers	-11.6742
▁principautés	-11.6742
▁shisha	-11.6742
▁phénomène	-11.6742
▁viande	-11.6742
▁07	-11.6742
▁Hamid	-11.6742
▁huitième	-11.6742
▁sɔksɔk	-11.6742
▁25000	-11.6742
▁Conseiller	-11.6742
▁MINISTRE	-11.6742
▁révèle	-11.6742
obre	-11.6742
▁Balaam	-11.6742
▁chameau	-11.6742
▁feuilles	-11.6742
▁imitateurs	-11.6742
édiateur	-11.6742
▁Mvond	-11.6742
▁périt	-11.6742
▁repens	-11.6742
▁nthɔmmthə	-11.6742
▁tsɛbǔ	-11.6742
▁bourse	-11.6742
▁Milet	-11.6742
▁Niniv	-11.6742
▁folles	-11.6742
▁dépose	-11.6742
▁médisance	-11.6742
habitude	-11.6742
égarement	-11.6742
▁Ander	-11.6742
▁Denis	-11.6742
▁boucs	-11.6742
▁renouvelables	-11.6742
▁voyait	-11.6742
▁confus	-11.6742
▁collaborateurs	-11.6742
▁onze	-11.6742
▁adversaires	-11.6742
tàmtə	-11.6742
▁attention	-11.6742
▁réunion	-11.6742
▁Écoutez	-11.6742
▁1966	-11.6742
▁infidèles	-11.6742
▁confond	-11.6742
▁Certainement	-11.6742
▁ntî	-11.6742
▁écouté	-11.6742
▁Zo	-11.6742
▁gəgəm	-11.6742
▁macabre	-11.6742
▁endormis	-11.6742
▁mŋkhʉɔ	-11.6742
nspect	-11.6742
alentour	-11.6742
▁blanchi	-11.6743
▁bébé	-11.6743
▁croissance	-11.6743
▁millions	-11.6743
EKO	-11.6743
▁Zhyə	-11.6743
▁shɔmmtso	-11.6743
▁voulais	-11.6743
▁57	-11.6743
▁rachetés	-11.6743
▁patient	-11.6743
▁préfe	-11.6743
▁2014	-11.6743
▁revenir	-11.6743
▁diversité	-11.6743
espace	-11.6743
Gene	-11.6743
▁the	-11.6743
▁hyá	-11.6743
▁étroite	-11.6743
▁confusion	-11.6743
ÀM	-11.6743
▁poutre	-11.6743
▁Nigeria	-11.6743
▁médisant	-11.6743
▁cachette	-11.6744
▁Cab	-11.6744
▁torture	-11.6744
▁sacré	-11.6744
▁naître	-11.6744
▁murmure	-11.6744
▁sarment	-11.6744
▁Zhwə	-11.6744
▁querelles	-11.6744
wâlâ	-11.6744
▁frappaient	-11.6744
▁considérez	-11.6744
▁convertissent	-11.6744
▁supportez	-11.6744
▁déclaration	-11.6744
▁hâte	-11.6744
▁dɛtə	-11.6744
▁ramen	-11.6744
▁Voyez	-11.6744
▁pôtsə	-11.6744
▁linge	-11.6744
▁pwâ	-11.6745
▁nthyə	-11.6745
▁procède	-11.6745
▁immolé	-11.6745
▁sévèrement	-11.6745
ouvoir	-11.6745
▁outrages	-11.6745
▁Jose	-11.6745
entretenaient	-11.6746
▁répandi	-11.6746
▁détachez	-11.6746
inspect	-11.6747
▁yǎp	-11.6747
▁participant	-11.6747
▁ignorant	-11.6748
▁néné	-11.6748
▁Thə	-11.6748
▁vide	-11.6748
▁ŋkʉɔ	-11.6748
▁souten	-11.6749
▁msó	-11.6749
▁annonçons	-11.6749
▁chassé	-11.6749
▁africaine	-11.6749
▁mcə	-11.6749
▁aimons	-11.6749
▁dort	-11.6749
▁dɔmnyə	-11.675
▁Biyà	-11.675
▁Présidentielle	-11.675
▁résister	-11.675
▁CFA	-11.675
▁Sachez	-11.6751
▁fonctionn	-11.6751
▁série	-11.6751
ophe	-11.6751
▁crièrent	-11.6751
▁Alexandre	-11.6751
ouvrage	-11.6751
tsó	-11.6751
▁díŋtə	-11.6752
▁journal	-11.6752
▁pleur	-11.6752
▁simplicité	-11.6752
▁traduction	-11.6752
▁aimait	-11.6752
▁prophétisé	-11.6753
▁honorable	-11.6753
▁répondu	-11.6753
▁recevez	-11.6753
▁pǒmsəŋ	-11.6753
▁fó	-11.6753
▁jì	-11.6754
▁rendrai	-11.6754
▁Msɛ	-11.6754
édé	-11.6754
▁baissé	-11.6755
▁sûn	-11.6755
▁programme	-11.6755
▁cwəpúŋ	-11.6755
▁mnɔk	-11.6755
▁Tv	-11.6755
▁adoré	-11.6756
▁résisté	-11.6756
▁Colo	-11.6756
▁buvant	-11.6756
▁scellé	-11.6756
▁juré	-11.6756
osait	-11.6757
▁brûlée	-11.6758
▁soumises	-11.6758
▁compren	-11.6759
▁criait	-11.6759
▁assigné	-11.6761
▁objectif	-11.6761
▁entendrez	-11.6761
▁honoré	-11.6762
▁X	-11.6763
▁Unie	-11.6763
atteste	-11.6763
▁tǐ	-11.6763
▁travaillent	-11.6763
▁kí	-11.6763
menât	-11.6764
▁Dja	-11.6765
▁perverti	-11.6765
▁acheter	-11.6766
▁fonctionnaires	-11.6766
▁réservée	-11.6766
▁pieux	-11.6767
▁deuil	-11.6767
▁Mləŋ	-11.6767
▁ŋkà	-11.6767
▁saisirent	-11.6767
▁msak	-11.6767
▁Aucun	-11.6768
▁Conf	-11.6769
▁reniera	-11.6769
adɛ	-11.6771
▁souvenez	-11.6771
▁dieu	-11.6772
▁pierreux	-11.6773
▁couverte	-11.6773
▁article	-11.6773
▁extrémité	-11.6773
▁Élisabeth	-11.6773
▁servit	-11.6774
▁Ordre	-11.6775
▁Noso	-11.6775
▁mapfʉə	-11.6775
▁bvù	-11.6775
▁effrayé	-11.6776
tel	-11.6777
▁mettez	-11.6777
pɛ	-11.6778
▁tenue	-11.6779
▁mfʉmnyə	-11.678
▁demeurait	-11.678
▁Samaritains	-11.6781
études	-11.6782
▁shwiŋ	-11.6783
onique	-11.6784
▁siens	-11.6784
▁violé	-11.6784
▁âne	-11.6786
▁mangeant	-11.6786
▁Anne	-11.6787
audit	-11.6787
▁Zhəŋ	-11.6791
▁Esso	-11.6792
bînàm	-11.6793
▁avertis	-11.6793
enseigner	-11.6794
tsú	-11.6794
▁dresse	-11.6795
nthɛ	-11.6795
▁venez	-11.6796
▁persécutes	-11.6796
▁longues	-11.6796
▁voleurs	-11.6797
▁Romains	-11.6798
spect	-11.6799
▁affligés	-11.6804
shwɛ	-11.6805
écout	-11.681
▁rues	-11.6812
▁ânon	-11.6812
▁shwədyə	-11.6813
▁mzhʉm	-11.6813
▁occupe	-11.6814
▁laissée	-11.6815
▁sociale	-11.6818
▁Tà	-11.682
▁plaid	-11.682
▁nomme	-11.682
▁évangile	-11.6823
mgəg	-11.6824
▁entrant	-11.6826
▁chandeliers	-11.6827
▁persécutions	-11.6827
▁présumés	-11.6827
▁souillures	-11.6827
▁tombés	-11.6829
▁Nations	-11.683
▁shwəsi	-11.683
▁surprendr	-11.6831
▁Wɔk	-11.6832
240	-11.6832
▁kwadzə	-11.6833
▁Nos	-11.6833
▁hier	-11.6833
▁assemblées	-11.6833
interrogèrent	-11.6837
▁Mfo	-11.6839
tal	-11.684
▁sauvages	-11.6843
▁meurtres	-11.6843
▁auraient	-11.6844
ŋga	-11.6846
▁balle	-11.6849
▁interrogea	-11.6851
▁confirmé	-11.6852
▁səŋnyə	-11.6853
isuŋ	-11.6854
▁attachés	-11.6858
▁lion	-11.6858
▁Shw	-11.6859
▁excellents	-11.6861
▁permets	-11.6862
▁noir	-11.6865
nergies	-11.6867
▁assemblée	-11.687
▁motos	-11.6872
▁rév	-11.6873
▁tentes	-11.6874
▁chi	-11.6874
▁ailleurs	-11.6874
▁mangea	-11.6875
CAM	-11.6876
▁Petit	-11.6881
▁Eli	-11.6884
▁centrale	-11.6888
▁avance	-11.6889
▁ntá	-11.689
▁allant	-11.6891
ouvenez	-11.6894
▁ébranlé	-11.6896
▁devoir	-11.6896
▁assemblèrent	-11.6898
▁Sem	-11.6899
▁servira	-11.69
▁vaines	-11.6905
▁mti	-11.6911
AD	-11.6913
▁éviter	-11.6917
▁ôtée	-11.6921
▁persuadés	-11.6923
ach	-11.6924
▁Centre	-11.6925
▁Hi	-11.6936
▁mciŋnyə	-11.6937
▁semaines	-11.6937
▁ŋkwyətə	-11.6945
▁décè	-11.695
▁commets	-11.6951
kou	-11.6953
▁Cúŋ	-11.696
▁fɛnyə	-11.6963
▁Enfin	-11.6965
▁possibles	-11.6968
▁note	-11.6969
▁yǝ	-11.697
IN	-11.6971
écriant	-11.698
FÀ	-11.6985
▁ombre	-11.6986
▁mkʉ	-11.6991
▁imposa	-11.6993
▁proposé	-11.6993
▁agité	-11.6994
triez	-11.6994
▁méprisé	-11.6996
DI	-11.6997
▁adultères	-11.7
▁imposé	-11.7004
▁calomni	-11.7005
▁lue	-11.7006
▁popula	-11.7012
cycl	-11.7014
▁générations	-11.7016
rité	-11.7016
▁grosses	-11.7017
▁nuŋtə	-11.7019
▁sonde	-11.702
ière	-11.703
▁continuer	-11.7037
inscri	-11.7039
▁transporté	-11.7045
▁faute	-11.7046
▁saisiss	-11.7047
veillant	-11.7049
CA	-11.705
éli	-11.7052
▁revienne	-11.7053
attendaient	-11.7061
uge	-11.7061
▁agréables	-11.7063
▁politiques	-11.7063
▁révélée	-11.7069
▁déc	-11.707
Orient	-11.7072
▁fám	-11.7078
▁lǝ	-11.7079
▁paraboles	-11.7079
▁accomplies	-11.7083
▁puni	-11.7086
alisation	-11.7087
▁gé	-11.7089
▁particip	-11.7099
▁ŋkhà	-11.71
accorder	-11.7101
▁dia	-11.7106
wǔ	-11.7106
▁aide	-11.7108
▁gouverneurs	-11.7111
▁confessera	-11.7113
iennent	-11.7133
▁Ato	-11.7134
xplique	-11.7136
▁diras	-11.7136
tendue	-11.7139
osa	-11.7147
ugo	-11.7151
▁bou	-11.7152
aies	-11.7155
▁beau	-11.7156
▁détermin	-11.716
▁descendus	-11.7163
▁prochaine	-11.7166
yon	-11.7175
▁sh	-11.7177
▁motif	-11.7182
▁veiller	-11.7187
▁prostern	-11.7201
▁finir	-11.7206
▁autorités	-11.7207
ateurs	-11.7207
dore	-11.721
ogé	-11.7219
▁placée	-11.7243
▁Ous	-11.7263
▁míŋ	-11.7263
ngwa	-11.7269
▁serais	-11.7281
▁toit	-11.7282
issions	-11.7297
abandonne	-11.7297
accusent	-11.7301
▁content	-11.7303
▁Ke	-11.7309
occupe	-11.7312
▁Stan	-11.7316
▁Ye	-11.7316
▁feras	-11.7323
▁pêche	-11.7325
▁mbvʉ	-11.7351
▁châtie	-11.736
▁apprendr	-11.7362
▁guériss	-11.7362
ld	-11.7375
▁maux	-11.7389
OM	-11.7392
servez	-11.7402
▁lits	-11.7405
▁Lə	-11.7413
inya	-11.7415
gǔ	-11.7422
400	-11.7422
▁repose	-11.7433
▁pɑtɔ	-11.7442
▁jugements	-11.7471
▁kwì	-11.7474
sala	-11.748
FS	-11.7488
▁défendi	-11.7503
▁haïs	-11.753
▁scandaliser	-11.754
attendent	-11.7585
▁March	-11.7586
▁Cond	-11.7598
auté	-11.7608
rage	-11.7631
▁situé	-11.7639
▁dérobe	-11.7639
▁repentir	-11.7642
▁livres	-11.7642
kâp	-11.7662
▁fermer	-11.7683
nɔm	-11.7687
lik	-11.7688
éclaire	-11.7697
dite	-11.7697
char	-11.7714
ries	-11.7727
vou	-11.7737
ui	-11.7741
PM	-11.7754
▁dél	-11.7757
▁brûl	-11.7814
SG	-11.7826
▁bénis	-11.7828
taient	-11.7833
▁inf	-11.7859
▁séduis	-11.7905
▁rompr	-11.791
▁permett	-11.7921
▁scandalise	-11.7925
hée	-11.7978
émon	-11.7991
▁tomb	-11.8009
informa	-11.8017
▁Th	-11.8023
kám	-11.8035
▁accompliss	-11.8048
nè	-11.805
▁cw	-11.8063
dou	-11.808
▁perdue	-11.8086
▁pratiqu	-11.813
acte	-11.8144
▁rassemble	-11.8176
yl	-11.8188
▁devienne	-11.8197
▁pren	-11.8199
assassinat	-11.8204
▁recueilli	-11.822
com	-11.8224
accompagn	-11.8226
▁crucifie	-11.8229
tifs	-11.8233
▁sacrifié	-11.8246
▁vǎ	-11.8262
anne	-11.8266
▁boira	-11.8267
lise	-11.8285
ffr	-11.829
▁cwa	-11.8298
▁meilleur	-11.8303
tends	-11.8318
▁différent	-11.8327
▁demanderai	-11.8343
▁all	-11.8359
adress	-11.8371
▁ressembl	-11.8383
▁acc	-11.8393
▁sourd	-11.8423
▁68	-11.8461
▁offri	-11.8463
▁arrache	-11.8482
gardant	-11.8486
▁décri	-11.8503
ention	-11.8508
▁annonc	-11.8521
ieds	-11.8527
rrêté	-11.8529
▁attache	-11.8555
sseur	-11.856
▁tarde	-11.8562
ebe	-11.8565
entra	-11.8565
▁délivr	-11.858
▁barre	-11.8597
▁paye	-11.8618
▁rejet	-11.862
▁55	-11.8629
▁Constitution	-11.863
lin	-11.8652
▁procédure	-11.8653
ball	-11.8654
▁scandalis	-11.8656
▁précieuse	-11.8656
▁projet	-11.8658
▁responsable	-11.866
▁brigand	-11.866
▁rue	-11.866
pǐ	-11.866
infra	-11.8662
▁maladie	-11.8662
▁médecin	-11.8662
▁affranchi	-11.8662
ouvrir	-11.8663
▁relâch	-11.8663
▁fus	-11.8668
▁rappel	-11.867
▁Bel	-11.8671
exploitation	-11.8671
Haut	-11.8671
administration	-11.8671
eunuque	-11.8671
engage	-11.8671
▁constat	-11.8673
importe	-11.8674
▁stade	-11.8674
lever	-11.8675
exemple	-11.8676
adorer	-11.8677
FC	-11.8678
arrestation	-11.8678
▁sexuel	-11.8679
dwɔ	-11.8679
étend	-11.8679
shwɔ	-11.8679
apporter	-11.8679
entendirent	-11.868
fû	-11.8681
13	-11.8682
entendaient	-11.8685
entendent	-11.8687
bʉ	-11.8688
bò	-11.8688
▁front	-11.869
▁naturel	-11.8692
mporte	-11.8692
▁division	-11.8699
▁affermis	-11.87
fǒ	-11.8701
▁corromp	-11.8704
▁talent	-11.8706
▁pì	-11.8706
▁ŋkwí	-11.8709
▁suivr	-11.871
▁mkhə	-11.8712
Éta	-11.8715
onore	-11.8722
enfui	-11.8731
▁admir	-11.8731
entrafricain	-11.8731
ommission	-11.8732
▁répudi	-11.8735
mplicité	-11.8736
▁bwɔ	-11.8736
▁endurci	-11.8737
▁nouvel	-11.8738
▁sévère	-11.8739
▁Suiv	-11.8739
▁obscur	-11.8739
▁réconcili	-11.8739
endurciss	-11.8741
introdui	-11.8741
▁institu	-11.8741
éloign	-11.8741
infirmité	-11.8741
▁Meyo	-11.8742
▁Crucifie	-11.8742
▁diffus	-11.8742
PIT	-11.8742
adoption	-11.8742
ajesté	-11.8742
amertume	-11.8742
empressement	-11.8742
immortalité	-11.8742
incorruptibilité	-11.8742
origine	-11.8742
píŋkwəpa	-11.8742
rchives	-11.8742
wwcamerounwebcom	-11.8742
ynamique	-11.8742
éponge	-11.8742
▁Abdouraman	-11.8742
▁Allons	-11.8742
▁Ambazoniens	-11.8742
▁Aristarko	-11.8742
▁Aristarque	-11.8742
▁Cameroon	-11.8742
▁EYENGA	-11.8742
▁Faraon	-11.8742
▁Gaïus	-11.8742
▁Gomorrhe	-11.8742
▁Grâce	-11.8742
▁Insensé	-11.8742
▁Italia	-11.8742
▁Jérico	-11.8742
▁Kamelûm	-11.8742
▁Kilikia	-11.8742
▁Lystra	-11.8742
▁Nicodème	-11.8742
▁Nikodemo	-11.8742
▁Nkongsamba	-11.8742
▁PARTICULIER	-11.8742
▁PITY	-11.8742
▁Pamfilia	-11.8742
▁Pamphylie	-11.8742
▁Pharaon	-11.8742
▁Priscille	-11.8742
▁Publics	-11.8742
▁Tychique	-11.8742
▁Yairos	-11.8742
▁acquitté	-11.8742
▁appesanti	-11.8742
▁branches	-11.8742
▁buisson	-11.8742
▁chariot	-11.8742
▁chimpanzé	-11.8742
▁collecte	-11.8742
▁colombe	-11.8742
▁comparerai	-11.8742
▁concerna	-11.8742
▁convaincu	-11.8742
▁convives	-11.8742
▁cuirasse	-11.8742
▁célèbre	-11.8742
▁dressé	-11.8742
▁débauche	-11.8742
▁déshonnête	-11.8742
▁dîner	-11.8742
▁embrasé	-11.8742
▁exaucé	-11.8742
▁exempt	-11.8742
▁fournaise	-11.8742
▁fureur	-11.8742
▁impudique	-11.8742
▁instamment	-11.8742
▁investisseurs	-11.8742
▁inébranlable	-11.8742
▁jwí	-11.8742
▁machette	-11.8742
▁marchions	-11.8742
▁marchons	-11.8742
▁mhɛbəŋ	-11.8742
▁mkwǐnthɛ	-11.8742
▁moutarde	-11.8742
▁mtwətwɔp	-11.8742
▁mɑfɔk	-11.8742
▁numéro	-11.8742
▁néanmoins	-11.8742
▁offenses	-11.8742
▁orphelin	-11.8742
▁permanent	-11.8742
▁plongé	-11.8742
▁proconsul	-11.8742
▁provisoire	-11.8742
▁rançon	-11.8742
▁remarqu	-11.8742
▁renouvellement	-11.8742
▁réduit	-11.8742
▁réservoir	-11.8742
▁résultats	-11.8742
▁réussi	-11.8742
▁sacrificature	-11.8742
▁scorpion	-11.8742
▁sincérité	-11.8742
▁sollicit	-11.8742
▁succession	-11.8742
▁séducteur	-11.8742
▁tiendra	-11.8742
▁traduit	-11.8742
▁téléphone	-11.8742
▁visibles	-11.8742
▁épargné	-11.8742
▁épousé	-11.8742
▁évidence	-11.8742
antichrist	-11.8742
inimitié	-11.8742
mkəfeli	-11.8742
Égyptien	-11.8742
évêque	-11.8742
▁Assomo	-11.8742
▁Didi	-11.8742
▁FDC	-11.8742
▁affirme	-11.8742
▁alerté	-11.8742
▁approuvé	-11.8742
▁armés	-11.8742
▁caverne	-11.8742
▁consult	-11.8742
▁contraign	-11.8742
▁flot	-11.8742
▁inquiétude	-11.8742
▁joyeux	-11.8742
▁mɑntha	-11.8742
▁particulière	-11.8742
▁prononce	-11.8742
▁pípà	-11.8742
▁route	-11.8742
▁stérile	-11.8742
Ɛ	-11.8742
▁Crète	-11.8742
▁EST	-11.8742
▁Friday	-11.8742
▁absolu	-11.8742
▁ajouta	-11.8742
▁certitude	-11.8742
▁empoisonn	-11.8742
▁fléchi	-11.8742
▁goûté	-11.8742
▁kwʉí	-11.8742
▁pédophil	-11.8742
▁écoutaient	-11.8742
▁nudité	-11.8742
▁pfaə	-11.8742
▁tromperie	-11.8742
▁zone	-11.8742
▁épître	-11.8742
ource	-11.8742
▁mourrez	-11.8742
▁torrent	-11.8742
▁Jason	-11.8742
▁Ntui	-11.8742
▁Tarse	-11.8742
▁blessures	-11.8742
▁laboure	-11.8742
▁mwya	-11.8742
▁récit	-11.8742
exercice	-11.8742
▁Jessé	-11.8742
▁complai	-11.8742
ÙŊ	-11.8742
▁Claud	-11.8742
▁Tarso	-11.8742
▁arbitraire	-11.8742
▁infini	-11.8742
▁opportunité	-11.8742
▁supplications	-11.8742
élégation	-11.8742
▁Alfeo	-11.8742
▁atteint	-11.8742
▁connaissiez	-11.8742
▁délices	-11.8742
▁Affaire	-11.8742
▁frontière	-11.8742
▁calme	-11.8742
▁mtsɛbú	-11.8742
▁odeur	-11.8742
▁ÉTAI	-11.8742
▁ŋkô	-11.8742
▁Dites	-11.8742
▁occupé	-11.8742
nyi	-11.8742
▁essuy	-11.8742
▁obéissez	-11.8742
▁hɛbəŋ	-11.8742
▁Enfant	-11.8742
▁tsìŋ	-11.8742
▁auditionné	-11.8742
exauce	-11.8742
▁Ngaound	-11.8742
▁procureur	-11.8742
▁observé	-11.8742
▁soulag	-11.8742
▁avare	-11.8742
▁ravisseurs	-11.8742
rugi	-11.8742
attaque	-11.8742
▁assassins	-11.8742
▁début	-11.8742
▁internationale	-11.8742
▁retirèrent	-11.8742
▁kwípnyə	-11.8742
▁mtǐ	-11.8742
▁réveille	-11.8742
▁préteurs	-11.8742
▁parlons	-11.8742
▁retombe	-11.8742
▁ruse	-11.8742
uffé	-11.8742
▁chantier	-11.8742
▁Mfu	-11.8742
▁durée	-11.8743
▁divinité	-11.8743
▁renvoyèrent	-11.8743
▁mzhwɔpshyə	-11.8743
▁tɛmtɔ	-11.8743
▁Kwí	-11.8743
▁Diane	-11.8743
▁hwé	-11.8743
▁marchand	-11.8743
▁chassèrent	-11.8743
▁kûŋ	-11.8743
▁impr	-11.8743
▁impudicités	-11.8743
SIDA	-11.8743
▁pureté	-11.8743
▁nombreuse	-11.8743
▁épreuves	-11.8743
▁opérations	-11.8743
▁kôdyə	-11.8743
endormi	-11.8743
riverai	-11.8743
▁quinz	-11.8743
▁surpasse	-11.8743
▁ghámtə	-11.8743
▁blâm	-11.8743
▁Khʉ	-11.8743
▁leŋfò	-11.8743
▁Abd	-11.8743
▁réconciliés	-11.8743
▁vivions	-11.8743
▁Java	-11.8743
mbazonyəŋ	-11.8743
attacha	-11.8743
▁passage	-11.8743
▁bâtissai	-11.8744
▁mandat	-11.8744
▁kwǐshyə	-11.8744
DR	-11.8744
▁samshwə	-11.8744
▁report	-11.8744
▁msɔm	-11.8744
▁département	-11.8744
▁naturellement	-11.8744
▁ghǝ	-11.8744
▁Yous	-11.8744
▁fontaine	-11.8744
▁iniquités	-11.8744
▁mámjwǐ	-11.8744
▁resplendissant	-11.8744
▁gâte	-11.8744
▁bassin	-11.8744
▁ghíŋ	-11.8744
▁reprenaient	-11.8744
▁fui	-11.8745
▁actuel	-11.8745
▁kilo	-11.8745
▁tamshyə	-11.8745
accompagnaient	-11.8745
▁figues	-11.8745
▁mtsǒ	-11.8745
▁44	-11.8745
▁bvɛ	-11.8745
▁tribunaux	-11.8745
▁reprenant	-11.8745
achève	-11.8745
installe	-11.8745
▁Suivi	-11.8745
▁finale	-11.8745
aroua	-11.8745
▁fables	-11.8745
▁défendre	-11.8745
étendit	-11.8745
▁vàm	-11.8745
▁Mukhʉ	-11.8746
▁prosternèrent	-11.8746
▁répondra	-11.8746
▁hùŋ	-11.8746
▁Juni	-11.8746
▁affermir	-11.8746
▁gǝ	-11.8746
ATA	-11.8746
▁sonner	-11.8747
▁sceaux	-11.8747
▁inquiét	-11.8747
rêt	-11.8747
▁KƏ	-11.8747
▁fǐ	-11.8747
▁considère	-11.8747
ELE	-11.8747
▁tìŋtə	-11.8747
▁pâte	-11.8747
▁brisé	-11.8747
élèveront	-11.8747
▁supplice	-11.8748
▁nthó	-11.8748
▁Caïn	-11.8748
agissait	-11.8748
▁mətú	-11.8748
cente	-11.8748
liers	-11.8748
▁khá	-11.8748
▁régner	-11.8749
▁priaient	-11.8749
▁Donnez	-11.8749
terelles	-11.8749
▁paradis	-11.8749
▁cachée	-11.8749
▁révoqué	-11.8749
▁ŋiŋtə	-11.8749
accus	-11.8749
▁mcwəcwə	-11.875
▁considérable	-11.875
▁bwǎnyə	-11.875
▁tsɛ	-11.875
▁Vʉ	-11.875
excellen	-11.875
▁publier	-11.875
ître	-11.875
▁souvient	-11.875
▁Banqu	-11.875
▁32	-11.8751
▁wɑlɑ	-11.8751
▁inférieur	-11.8751
▁officier	-11.8751
▁lâlǎ	-11.8751
impression	-11.8751
▁Fò	-11.8751
▁pya	-11.8751
▁défi	-11.8751
▁lapider	-11.8751
▁entendront	-11.8751
▁coins	-11.8752
vɑnyə	-11.8752
▁fú	-11.8752
▁couvrir	-11.8752
Guy	-11.8752
▁transgresseur	-11.8752
▁attendez	-11.8753
allume	-11.8753
▁mdɔ	-11.8753
fô	-11.8753
▁débo	-11.8753
▁Disant	-11.8753
entour	-11.8754
▁manifester	-11.8754
▁nourrit	-11.8755
▁nuire	-11.8755
▁imit	-11.8755
▁répandait	-11.8755
▁librement	-11.8755
Ebolowa	-11.8755
angle	-11.8756
▁Tyə	-11.8756
▁Baba	-11.8756
▁honteux	-11.8756
▁obligé	-11.8756
▁jeûnent	-11.8756
▁miel	-11.8756
▁sûreté	-11.8756
▁perdent	-11.8757
▁nthoto	-11.8757
▁ŋkhǔ	-11.8757
▁hɔjyə	-11.8757
▁visiter	-11.8758
▁Levez	-11.8758
▁chantera	-11.8758
▁souffrez	-11.8758
▁ressemblent	-11.8758
▁Otez	-11.8758
▁DG	-11.8758
▁multiplia	-11.8758
▁parfaitement	-11.8759
▁réjouit	-11.8759
encens	-11.8759
▁mûgo	-11.8759
SI	-11.876
▁présidentielle	-11.8761
gique	-11.8761
▁capital	-11.8761
▁étoile	-11.8762
▁Kuŋ	-11.8762
▁mtɔk	-11.8763
▁regardaient	-11.8763
▁punition	-11.8763
▁cabinet	-11.8763
▁Ton	-11.8764
▁meule	-11.8764
▁accomplir	-11.8764
▁dzəzə	-11.8765
▁impotent	-11.8765
▁humilité	-11.8765
▁exige	-11.8766
▁jwe	-11.8766
▁tomberont	-11.8766
▁bvʉsi	-11.8766
▁boirez	-11.8767
▁cwanyə	-11.8767
▁recherché	-11.8767
▁CamerounWeb	-11.8767
▁pleurer	-11.8768
▁Kwe	-11.8768
▁obscurci	-11.8769
zhǐ	-11.8769
▁loyer	-11.877
▁accept	-11.877
▁arrivent	-11.877
▁domination	-11.8771
▁Ká	-11.8771
▁Akilas	-11.8771
▁domestiques	-11.8771
▁fornicateurs	-11.8771
▁idolâtres	-11.8771
▁tranchante	-11.8771
▁gəgɛ	-11.8772
▁tenez	-11.8772
▁survint	-11.8772
▁Lâ	-11.8772
▁recouvra	-11.8773
▁périront	-11.8773
▁invité	-11.8774
▁profondeur	-11.8774
▁violée	-11.8774
▁mghʉ	-11.8775
▁fausse	-11.8776
▁préoccup	-11.8776
▁boue	-11.8776
▁raconté	-11.8777
▁messager	-11.8778
▁regret	-11.8778
▁mtutuŋ	-11.8778
▁psaume	-11.8778
▁sécha	-11.8779
ycée	-11.8779
▁exp	-11.878
▁disais	-11.878
▁souvenu	-11.8781
▁kwishwə	-11.8781
▁extérieur	-11.8781
▁Sala	-11.8781
▁Abia	-11.8781
▁plut	-11.8781
▁proposa	-11.8782
▁brill	-11.8783
▁mtǎdyə	-11.8783
▁Nch	-11.8784
équi	-11.8786
▁Ceŋnyə	-11.8786
▁arc	-11.8786
▁daktə	-11.8786
▁pardon	-11.8787
▁ntátə	-11.8787
▁devrai	-11.8787
▁pench	-11.8789
édée	-11.879
▁Hypocrites	-11.879
▁enflés	-11.879
▁verges	-11.879
▁troublés	-11.8791
▁recommandé	-11.8792
▁divisée	-11.8793
▁total	-11.8795
səm	-11.8795
▁ailes	-11.8796
▁vînt	-11.8796
▁cǔŋ	-11.8797
▁partirent	-11.8799
▁punissa	-11.8804
▁tourmenté	-11.8804
▁Savoir	-11.8807
ccès	-11.8808
▁portez	-11.8808
▁gwə	-11.8809
▁activités	-11.881
▁offrandes	-11.881
▁administratives	-11.881
▁sexuelle	-11.881
▁posé	-11.8811
▁salle	-11.8812
▁Sʉ	-11.8812
▁marcs	-11.8813
▁regarder	-11.8815
▁tě	-11.8815
▁enfer	-11.8816
▁tǎtə	-11.8816
ack	-11.8816
▁parlerai	-11.8819
▁Ote	-11.8821
▁persévér	-11.8822
▁Mŋw	-11.8822
▁manne	-11.8823
▁Rela	-11.8823
oût	-11.8825
▁pourrait	-11.8825
▁fall	-11.8826
▁disiez	-11.8826
▁FC	-11.8826
▁hôpital	-11.8827
▁éprouver	-11.8827
▁invités	-11.8829
▁précieuses	-11.8829
▁moindre	-11.8831
▁meilleurs	-11.8832
▁stades	-11.8832
▁Princ	-11.8833
▁économ	-11.8834
▁Pɛ	-11.8835
▁cyəpɔ	-11.8837
▁direz	-11.8838
sì	-11.8838
▁phənyə	-11.8838
▁papier	-11.8839
▁Alf	-11.8839
▁mkwɛ	-11.884
▁mhə	-11.8843
cyəŋ	-11.8843
▁maltraité	-11.8845
awa	-11.8845
▁Kɔ	-11.8845
▁effrayés	-11.8848
▁difficiles	-11.8848
▁Pharisiens	-11.8848
▁bourgades	-11.8848
▁campagnes	-11.8848
▁démoniaques	-11.8848
▁Mguŋ	-11.885
▁ghʉm	-11.8852
▁confiés	-11.8852
▁liée	-11.8854
▁ligne	-11.8854
▁Galiléens	-11.8855
▁mienne	-11.8855
▁mʉə	-11.8856
▁mgɛ	-11.8856
ʉɔjʉ	-11.8857
▁imposer	-11.8857
▁abondance	-11.8859
▁Fra	-11.8864
honorent	-11.8865
battre	-11.8866
▁Ji	-11.8867
▁tourments	-11.8868
▁enceintes	-11.8868
▁preuves	-11.8868
▁jeûnes	-11.8868
▁Cǎ	-11.887
▁obten	-11.8871
▁destinés	-11.8872
achever	-11.8873
▁accusation	-11.8874
▁conclu	-11.8878
▁sable	-11.8881
maine	-11.8881
▁nám	-11.8883
▁gagné	-11.8885
▁contestations	-11.8887
▁accident	-11.8891
▁kyə	-11.8898
▁revêtus	-11.8907
▁mana	-11.8909
▁dévor	-11.8911
amɛn	-11.8913
▁cyəŋnyə	-11.8916
viennent	-11.8917
▁bailleur	-11.8919
▁Mari	-11.892
▁shǔ	-11.8923
▁mgi	-11.8925
uvez	-11.8925
▁dʉm	-11.8925
▁approchés	-11.8926
▁blasphèmes	-11.8926
▁fondements	-11.8926
▁serpents	-11.8926
▁épées	-11.8926
auraient	-11.8927
▁Té	-11.8938
▁waə	-11.8939
▁fautes	-11.894
▁ardente	-11.894
▁entraîné	-11.8944
▁mpi	-11.8946
▁Mag	-11.8947
eŋnyə	-11.895
▁malins	-11.8953
▁ŋkwɛnyə	-11.8959
quet	-11.8962
▁désiré	-11.8963
gement	-11.8966
▁réd	-11.8969
▁abond	-11.8974
▁Lɔ	-11.8979
cations	-11.8982
▁reviendrai	-11.8983
▁bourgs	-11.8985
▁lapidé	-11.8989
▁you	-11.899
▁mpəŋ	-11.8991
▁promise	-11.8998
▁bénéficier	-11.9002
▁remi	-11.9002
mkɔ	-11.9006
▁Lit	-11.9008
▁baisa	-11.9016
▁arrach	-11.9018
▁moyens	-11.9024
▁cʉɔ	-11.9036
▁sortent	-11.9045
ref	-11.9048
▁trompettes	-11.9064
udite	-11.9069
▁brûler	-11.907
▁msʉ	-11.9071
amasse	-11.9072
tsò	-11.9073
▁sê	-11.9079
▁base	-11.9079
▁confiée	-11.908
▁dévorer	-11.909
FA	-11.9096
▁assiste	-11.9108
empire	-11.9111
▁dû	-11.9116
▁ind	-11.9122
▁guerres	-11.9123
lami	-11.9125
oï	-11.9138
line	-11.914
▁trésors	-11.9143
Aram	-11.9146
▁inform	-11.9147
▁accou	-11.9148
▁disposé	-11.915
▁délai	-11.9156
aissa	-11.9169
▁ajouter	-11.917
form	-11.9171
▁voisin	-11.9182
▁glorifiés	-11.9186
000	-11.9192
Equinoxe	-11.9195
▁spéciale	-11.9205
▁zhɔ	-11.9209
aré	-11.9222
▁enté	-11.9222
▁montai	-11.9239
epentez	-11.9239
▁Quoiqu	-11.9241
▁divin	-11.9244
▁caus	-11.9256
həma	-11.927
ssions	-11.9272
ccompagner	-11.9283
▁condamn	-11.9283
▁senti	-11.9287
▁puissante	-11.9298
▁mcw	-11.9308
▁sacrifiée	-11.9309
ssassinat	-11.9311
inus	-11.9312
▁détruira	-11.9316
81	-11.932
▁justifie	-11.932
▁rester	-11.9332
▁jyɔjʉ	-11.9359
iant	-11.9361
irecteur	-11.9362
▁purifie	-11.9382
▁eue	-11.9389
▁détruite	-11.9394
▁sor	-11.94
▁commence	-11.9405
púŋ	-11.9437
▁Calv	-11.9442
▁marier	-11.9456
▁nɛ	-11.9459
▁comprendre	-11.9459
▁45	-11.9469
▁appar	-11.9469
▁confie	-11.9491
▁poursuivi	-11.9498
▁reconnaître	-11.9498
▁kâm	-11.9528
thɔ	-11.9544
▁condamnée	-11.9578
than	-11.9579
▁Recherche	-11.9587
observer	-11.9596
▁envelopp	-11.9599
▁recouvr	-11.9616
▁FO	-11.9643
sco	-11.9645
▁kwî	-11.9672
kwǎ	-11.9701
indre	-11.9737
▁Br	-11.974
52	-11.9747
ly	-11.9749
▁raconta	-11.9749
▁demand	-11.9761
▁dénonce	-11.9791
occident	-11.9791
▁Ŋkw	-11.9802
▁reconnais	-11.9816
▁savai	-11.9816
▁subi	-11.9818
▁revêtir	-11.9821
ntrez	-11.9826
▁ressusciterai	-11.9832
portèrent	-11.9856
oindre	-11.9858
▁Kw	-11.988
▁65	-11.9909
▁dépouill	-11.9918
▁Mf	-11.9919
▁tâche	-11.993
▁ravisse	-11.9934
▁tâch	-11.9967
▁dérober	-11.9981
▁représente	-11.9985
▁revêt	-11.9987
thɛ	-11.999
▁couche	-12.0001
tò	-12.0009
▁Rappel	-12.0009
▁Baka	-12.0016
▁moquer	-12.004
bon	-12.0051
avant	-12.0069
ivement	-12.0084
lèrent	-12.0085
bà	-12.0092
▁tenter	-12.0094
ssèrent	-12.0124
▁trahira	-12.0159
hɑ	-12.0184
gardaient	-12.024
▁couvr	-12.0257
titude	-12.0258
▁film	-12.0261
ghak	-12.0286
▁souvien	-12.029
uba	-12.0335
▁désirer	-12.0335
▁mpú	-12.0367
dresse	-12.0373
▁conten	-12.0418
aimée	-12.0435
▁mâmjw	-12.0454
▁souffr	-12.0482
▁meure	-12.0486
gw	-12.0489
tak	-12.0489
ignore	-12.0499
rist	-12.0535
▁viv	-12.0542
▁apprend	-12.0548
attache	-12.0565
▁joigni	-12.0609
▁Quoi	-12.0641
gwa	-12.0654
98	-12.0666
entretien	-12.0688
▁compt	-12.0692
approcher	-12.0695
usé	-12.0704
▁trahir	-12.071
▁Ngu	-12.0717
▁établir	-12.0723
pûŋ	-12.0733
ɔjʉm	-12.074
▁coll	-12.0763
▁Lin	-12.0777
▁manqu	-12.0785
habite	-12.0787
▁import	-12.079
réparez	-12.0799
▁marc	-12.0813
naire	-12.0826
gue	-12.0844
prennent	-12.0856
venez	-12.0856
▁satisfai	-12.0863
▁pardonnera	-12.0884
▁ŋwá	-12.0889
ulaire	-12.0906
▁abandonn	-12.0917
iɔŋ	-12.092
khʉ	-12.0951
rta	-12.0965
▁déroul	-12.0972
▁paisible	-12.0974
ghap	-12.0979
remi	-12.0986
▁civil	-12.0988
▁anéanti	-12.0989
▁gwy	-12.0999
enseigne	-12.1003
zhəŋ	-12.1006
venir	-12.1009
khə	-12.101
▁trou	-12.1017
▁subsiste	-12.1017
▁signal	-12.1025
▁Sal	-12.103
rats	-12.1031
▁souffle	-12.1033
énergie	-12.1041
zhɔ	-12.1055
érant	-12.106
▁supporte	-12.1071
▁subsist	-12.1071
▁engagé	-12.1071
▁confirm	-12.1073
▁pardonn	-12.1092
▁servant	-12.1093
ifs	-12.1101
▁ensevelir	-12.111
▁Comm	-12.1113
▁crach	-12.1115
émotion	-12.1123
armes	-12.1124
▁social	-12.1125
thak	-12.1127
▁cell	-12.1129
mtso	-12.1135
▁menti	-12.1136
▁survenu	-12.1139
▁mko	-12.114
▁effectu	-12.114
▁outrag	-12.1147
▁appri	-12.1148
hwi	-12.115
▁abattu	-12.1154
▁blanche	-12.1154
▁persécute	-12.1155
auteur	-12.1156
▁administrative	-12.1156
▁longue	-12.1157
▁tonnerre	-12.1159
▁étrangère	-12.1159
▁Romain	-12.1165
▁cesser	-12.1167
invite	-12.1167
héritier	-12.1171
absence	-12.1171
exhortation	-12.1171
apprend	-12.1171
MBA	-12.1173
shǔ	-12.1173
offrande	-12.1173
▁pre	-12.1174
levèrent	-12.1175
intérêt	-12.1176
écrire	-12.1176
offrir	-12.1176
dwɔp	-12.1176
épines	-12.1177
asseoir	-12.1177
msɔk	-12.1178
Antioche	-12.1178
exerce	-12.1178
neuf	-12.1178
lambu	-12.1178
jwi	-12.1179
Nous	-12.118
jí	-12.118
emme	-12.118
gɔpna	-12.118
▁sacrifi	-12.1181
▁témoigne	-12.1181
cadre	-12.1182
ŋkɛ	-12.1184
tíŋnyə	-12.1184
tendaient	-12.1189
accusé	-12.119
dix	-12.1193
gǎ	-12.1195
▁directe	-12.1196
écoutent	-12.1197
▁affect	-12.1198
apporte	-12.1199
▁voleur	-12.1199
toral	-12.12
fá	-12.1201
œ	-12.1202
▁achet	-12.1203
interroge	-12.1204
aimez	-12.1207
taille	-12.1208
▁transgress	-12.1208
ésormais	-12.1208
omination	-12.1209
observ	-12.1209
▁Franç	-12.1211
▁Dôg	-12.1213
gwə	-12.1213
▁Généra	-12.1218
▁conduir	-12.1219
▁Sept	-12.122
limat	-12.122
▁connaîtra	-12.1221
édition	-12.1221
▁offrande	-12.1227
TOU	-12.1227
▁marcha	-12.1227
mzhəŋ	-12.1228
▁Dia	-12.1229
œur	-12.123
▁suive	-12.123
▁héritier	-12.1231
▁mpfɔ	-12.1231
▁instan	-12.1232
▁Afrik	-12.1232
▁mouru	-12.1233
ontrôle	-12.1233
inq	-12.1234
▁suppli	-12.1235
▁trembl	-12.1236
▁rejoin	-12.1236
raduction	-12.1237
impose	-12.1238
Mon	-12.1238
▁Salom	-12.1239
ANG	-12.1239
▁agric	-12.124
▁mangerai	-12.124
▁shwɔppʉ	-12.124
▁administr	-12.124
▁MI	-12.124
▁gémiss	-12.124
ifié	-12.1241
descen	-12.1241
▁prompt	-12.1241
▁profess	-12.1241
inconnu	-12.1241
excuse	-12.1241
infidèle	-12.1241
▁renouvel	-12.1242
▁douce	-12.1242
▁http	-12.1242
▁TSɄ	-12.1242
réserve	-12.1242
Ʉ	-12.1242
▁média	-12.1242
essentiel	-12.1242
intégr	-12.1242
Ú	-12.1242
▁Collect	-12.1242
://	-12.1242
=	-12.1242
Abiud	-12.1242
Arimat	-12.1242
ERIE	-12.1242
MISSION	-12.1242
RITE	-12.1242
accomplît	-12.1242
accroissement	-12.1242
apostolat	-12.1242
avillon	-12.1242
cadémique	-12.1242
entretenir	-12.1242
horizo	-12.1242
hospitalité	-12.1242
idolâtrie	-12.1242
initiative	-12.1242
interprète	-12.1242
nçaient	-12.1242
obscurité	-12.1242
orazin	-12.1242
rchange	-12.1242
édifice	-12.1242
ë	-12.1242
▁1968	-12.1242
▁2035	-12.1242
▁Adamáwà	-12.1242
▁Aleksandria	-12.1242
▁Appol	-12.1242
▁Arimatea	-12.1242
▁Arrière	-12.1242
▁Attaché	-12.1242
▁August	-12.1242
▁Barthélemi	-12.1242
▁Benjamin	-12.1242
▁CEMAC	-12.1242
▁CONSEIL	-12.1242
▁Centrafrique	-12.1242
▁Charle	-12.1242
▁Consolateur	-12.1242
▁Cyəgwɛ	-12.1242
▁Dwǎlá	-12.1242
▁Dɛrbe	-12.1242
▁Ekoka	-12.1242
▁Envoie	-12.1242
▁Extérieure	-12.1242
▁Fenikia	-12.1242
▁Gomora	-12.1242
▁Guilhou	-12.1242
▁Hollande	-12.1242
▁Info	-12.1242
▁Kamərûn	-12.1242
▁Ketch	-12.1242
▁Logbaba	-12.1242
▁MONSIEUR	-12.1242
▁Maxim	-12.1242
▁Mbarg	-12.1242
▁Messager	-12.1242
▁Nazarien	-12.1242
▁Ndiaye	-12.1242
▁Parakle	-12.1242
▁Pentecôte	-12.1242
▁Principal	-12.1242
▁Roboam	-12.1242
▁Royaume	-12.1242
▁SDF	-12.1242
▁SECRETARIAT	-12.1242
▁Silvain	-12.1242
▁Silvano	-12.1242
▁Tiatira	-12.1242
▁Tikiko	-12.1242
▁TÂDYƏ	-12.1242
▁Wilfri	-12.1242
▁YEN	-12.1242
▁abolir	-12.1242
▁abominables	-12.1242
▁accablé	-12.1242
▁adverse	-12.1242
▁arrêts	-12.1242
▁aveuglé	-12.1242
▁bancaire	-12.1242
▁bandelettes	-12.1242
▁cadavre	-12.1242
▁cigarette	-12.1242
▁cinquième	-12.1242
▁citoyen	-12.1242
▁complot	-12.1242
▁concour	-12.1242
▁confrontation	-12.1242
▁conviés	-12.1242
▁crucifièrent	-12.1242
▁crèche	-12.1242
▁cuisine	-12.1242
▁diacres	-12.1242
▁défunt	-12.1242
▁dépend	-12.1242
▁détenu	-12.1242
▁effort	-12.1242
▁embûches	-12.1242
▁errants	-12.1242
▁espèce	-12.1242
▁exciter	-12.1242
▁forfait	-12.1242
▁garçon	-12.1242
▁geôlier	-12.1242
▁grêle	-12.1242
▁gəlísì	-12.1242
▁hardiment	-12.1242
▁hospitali	-12.1242
▁hwehwě	-12.1242
▁inscription	-12.1242
▁inspiré	-12.1242
▁installée	-12.1242
▁kribi	-12.1242
▁linceul	-12.1242
▁lèpre	-12.1242
▁matelots	-12.1242
▁mkhɛ	-12.1242
▁mondiale	-12.1242
▁mubwǎ	-12.1242
▁notamment	-12.1242
▁ntîtǐ	-12.1242
▁opposé	-12.1242
▁organisée	-12.1242
▁paissaient	-12.1242
▁patiemment	-12.1242
▁permanence	-12.1242
▁pernicieu	-12.1242
▁pfɔppfɔp	-12.1242
▁pigeons	-12.1242
▁pirogue	-12.1242
▁possède	-12.1242
▁prescrit	-12.1242
▁principe	-12.1242
▁privilège	-12.1242
▁procédé	-12.1242
▁prononcé	-12.1242
▁protégé	-12.1242
▁prouve	-12.1242
▁province	-12.1242
▁précédent	-12.1242
▁prédestinés	-12.1242
▁quotidien	-12.1242
▁religieux	-12.1242
▁remportâtes	-12.1242
▁renfermé	-12.1242
▁reptiles	-12.1242
▁responsabilité	-12.1242
▁reçois	-12.1242
▁rudiments	-12.1242
▁réception	-12.1242
▁régler	-12.1242
▁réprim	-12.1242
▁réunir	-12.1242
▁sacerdoce	-12.1242
▁sanctification	-12.1242
▁secourir	-12.1242
▁solennel	-12.1242
▁spectacle	-12.1242
▁successeur	-12.1242
▁supporté	-12.1242
▁séduction	-12.1242
▁sépulture	-12.1242
▁tempérance	-12.1242
▁théâtre	-12.1242
▁transformé	-12.1242
▁vigilant	-12.1242
▁volupté	-12.1242
▁Éphésiens	-12.1242
▁ça	-12.1242
▁égarés	-12.1242
UDC	-12.1242
affaibli	-12.1242
animosité	-12.1242
approuve	-12.1242
▁1994	-12.1242
▁Berea	-12.1242
▁Bérée	-12.1242
▁DELEG	-12.1242
▁Nguele	-12.1242
▁Sakio	-12.1242
▁Techniques	-12.1242
▁Véritable	-12.1242
▁abolie	-12.1242
▁allumé	-12.1242
▁breuvage	-12.1242
▁bwá	-12.1242
▁compét	-12.1242
▁courroie	-12.1242
▁différence	-12.1242
▁drogue	-12.1242
▁généalogi	-12.1242
▁historique	-12.1242
▁impla	-12.1242
▁insensé	-12.1242
▁irrité	-12.1242
▁matériel	-12.1242
▁mkəkʉɔ	-12.1242
▁mpyáp	-12.1242
▁ménage	-12.1242
▁offensé	-12.1242
▁organise	-12.1242
▁passereaux	-12.1242
▁patriarche	-12.1242
▁prestation	-12.1242
▁priori	-12.1242
▁ravage	-12.1242
▁restituer	-12.1242
▁réalisé	-12.1242
▁rôle	-12.1242
▁signé	-12.1242
▁truands	-12.1242
céder	-12.1242
indigence	-12.1242
ultimat	-12.1242
È	-12.1242
▁BAS	-12.1242
▁Derbe	-12.1242
▁Hana	-12.1242
▁abouti	-12.1242
▁accrédit	-12.1242
▁capacité	-12.1242
▁complète	-12.1242
▁constitue	-12.1242
▁extrême	-12.1242
▁localité	-12.1242
▁mcǔtə	-12.1242
▁mkapfə	-12.1242
▁mobilis	-12.1242
▁paresseux	-12.1242
▁rapide	-12.1242
▁républi	-12.1242
▁travaillant	-12.1242
▁vanité	-12.1242
▁vaudra	-12.1242
▁Monday	-12.1242
▁Mtìŋ	-12.1242
▁gentils	-12.1242
▁kô	-12.1242
▁maintien	-12.1242
▁pilote	-12.1242
▁évoque	-12.1242
Italie	-12.1242
ollar	-12.1242
▁MGHƐ	-12.1242
▁gámtə	-12.1242
▁relax	-12.1242
tlanti	-12.1242
▁Fdc	-12.1242
▁jambes	-12.1242
▁poursuit	-12.1242
▁voyais	-12.1242
▁écoutait	-12.1242
▁éloigner	-12.1242
▁Salmon	-12.1242
▁flambeau	-12.1242
▁jaspe	-12.1242
▁profil	-12.1242
▁retrouvera	-12.1242
ANDP	-12.1242
MADAM	-12.1242
▁Goni	-12.1242
▁Eyafa	-12.1242
▁Mkwɔ	-12.1242
ETAT	-12.1242
brah	-12.1242
▁Agar	-12.1242
▁croît	-12.1242
▁diplomatique	-12.1242
information	-12.1242
▁cendre	-12.1242
▁cicə	-12.1242
▁mercenaire	-12.1242
▁sentiers	-12.1242
▁ŋkúŋ	-12.1242
▁justification	-12.1242
▁kamelo	-12.1242
▁changeurs	-12.1242
ardinard	-12.1242
▁reprendre	-12.1242
▁rouill	-12.1242
▁Oscar	-12.1242
▁amenez	-12.1242
▁contient	-12.1242
ehɛ	-12.1242
UNES	-12.1242
lbis	-12.1242
▁mnthɔm	-12.1242
▁Moham	-12.1242
▁mgap	-12.1242
▁tension	-12.1242
environnement	-12.1242
▁traces	-12.1242
WƆ	-12.1242
▁obéissant	-12.1242
▁accueille	-12.1242
▁Simeon	-12.1242
▁2015	-12.1242
▁consommation	-12.1242
▁Gəts	-12.1242
RÉSIDENCE	-12.1242
▁dispersées	-12.1242
▁multiplier	-12.1242
▁banni	-12.1242
▁captifs	-12.1242
▁Eteki	-12.1242
▁bilingu	-12.1242
▁creus	-12.1242
îné	-12.1242
▁enregistré	-12.1242
▁piller	-12.1242
adonne	-12.1242
▁Tour	-12.1242
utilité	-12.1242
▁Essomba	-12.1242
▁ntamtə	-12.1242
▁pɛco	-12.1242
▁wì	-12.1242
▁remont	-12.1242
▁contrat	-12.1242
UPC	-12.1242
espoir	-12.1242
▁congédi	-12.1242
▁dispensateurs	-12.1242
▁importance	-12.1242
▁kǐ	-12.1243
▁Apportez	-12.1243
▁tsû	-12.1243
▁mmʉə	-12.1243
▁promet	-12.1243
▁congé	-12.1243
▁ŋkwì	-12.1243
API	-12.1243
▁coudée	-12.1243
▁ŋkhɔmkɔ	-12.1243
▁propi	-12.1243
▁juridique	-12.1243
▁succès	-12.1243
▁désolation	-12.1243
▁mnthap	-12.1243
▁shwâgəfə	-12.1243
▁bâtissez	-12.1243
▁percut	-12.1243
▁assassiné	-12.1243
▁foulée	-12.1243
▁ouvrages	-12.1243
▁percé	-12.1243
▁tribulation	-12.1243
▁2013	-12.1243
▁colonne	-12.1243
normal	-12.1243
▁écarté	-12.1243
▁briga	-12.1243
▁hwǐ	-12.1243
▁réalisation	-12.1243
▁maudiss	-12.1243
milien	-12.1243
▁Ministériels	-12.1243
thène	-12.1243
ulture	-12.1243
▁communique	-12.1243
▁légale	-12.1243
▁46	-12.1243
▁colon	-12.1243
▁Yese	-12.1243
▁excité	-12.1243
▁mkɛ	-12.1244
PMI	-12.1244
▁mcɑ	-12.1244
▁Fousse	-12.1244
▁zhwɔpshyə	-12.1244
▁mvíŋ	-12.1244
▁poussé	-12.1244
▁persécuteront	-12.1244
▁Garoua	-12.1244
duisez	-12.1244
▁Símn	-12.1244
▁pauvreté	-12.1244
▁professionnel	-12.1244
▁gri	-12.1244
▁-05	-12.1244
▁bvyə	-12.1244
▁réconciliation	-12.1244
▁chance	-12.1244
assirent	-12.1244
▁Kamto	-12.1244
▁désobéi	-12.1244
investissement	-12.1244
▁minut	-12.1244
▁dáktə	-12.1244
agriculture	-12.1244
▁Autrement	-12.1245
▁Log	-12.1245
▁Ruf	-12.1245
Abel	-12.1245
assist	-12.1245
▁finances	-12.1245
ÂꞋ	-12.1245
▁expliquer	-12.1245
▁74	-12.1245
▁aillent	-12.1245
▁dissip	-12.1245
▁Barbares	-12.1245
▁47	-12.1245
▁rattachées	-12.1245
ensez	-12.1245
▁Laisse	-12.1245
▁mŋwǎla	-12.1246
▁250	-12.1246
▁Tabit	-12.1246
ification	-12.1246
▁Manjo	-12.1246
▁portique	-12.1246
▁yàm	-12.1246
▁perverse	-12.1246
ième	-12.1246
▁2000	-12.1246
▁Kwi	-12.1246
▁kúŋgǒ	-12.1246
▁mages	-12.1246
▁suprême	-12.1246
industrie	-12.1246
▁queues	-12.1246
▁vagues	-12.1246
▁provoquer	-12.1246
▁apaisé	-12.1247
▁chaleur	-12.1247
▁remplac	-12.1247
▁Malin	-12.1247
▁fermeté	-12.1247
▁wyɛ	-12.1247
▁banque	-12.1247
enlèvement	-12.1248
▁borne	-12.1248
▁mtà	-12.1248
▁revêtez	-12.1248
agneau	-12.1248
▁boive	-12.1248
mobile	-12.1248
▁voisines	-12.1248
▁bînam	-12.1248
▁flé	-12.1248
▁Nag	-12.1248
▁hais	-12.1248
▁servaient	-12.1248
▁Hɑ	-12.1248
▁Ŋkwɔ	-12.1249
▁stad	-12.1249
▁2002	-12.1249
▁séparera	-12.1249
▁gang	-12.1249
▁semer	-12.1249
▁péril	-12.1249
gəgə	-12.1249
▁chauffait	-12.125
Université	-12.125
▁régional	-12.125
endurcissement	-12.125
cyànyə	-12.1251
▁reine	-12.1251
▁pè	-12.1251
▁mpǎ	-12.1251
▁persévérer	-12.1251
▁jɛlúŋ	-12.1251
ynergies	-12.1251
▁aigle	-12.1252
▁blasphémer	-12.1252
▁Bamenda	-12.1252
▁croissait	-12.1252
▁condamneront	-12.1252
▁rappelle	-12.1252
▁hɛ	-12.1252
▁cyǎnyə	-12.1252
▁malheureux	-12.1252
▁étendr	-12.1252
abale	-12.1252
▁retournait	-12.1253
▁ŋkhíŋ	-12.1253
réparation	-12.1253
enfantement	-12.1253
▁attendons	-12.1253
▁PLACE	-12.1253
▁artifice	-12.1253
▁efficacité	-12.1253
▁gəlísi	-12.1253
4/	-12.1254
▁1982	-12.1254
▁Nyap	-12.1255
▁nthʉɔdyə	-12.1255
▁Lot	-12.1255
▁persévéré	-12.1255
▁Henr	-12.1256
▁Lɔt	-12.1256
▁loger	-12.1256
▁abrégé	-12.1256
nuel	-12.1256
▁exhortant	-12.1257
▁pyapdzə	-12.1257
indigne	-12.1257
▁dêk	-12.1257
▁Agab	-12.1257
▁parlaient	-12.1258
▁COM	-12.1258
syàp	-12.1258
humani	-12.1258
opposer	-12.1258
▁Peut	-12.1258
itié	-12.1258
▁mkǎmg	-12.1259
▁Fû	-12.1259
▁hauteur	-12.1259
▁crû	-12.126
▁avancée	-12.126
▁méprisez	-12.126
▁veillez	-12.126
▁invoquent	-12.126
▁troublée	-12.1261
▁yápfʉə	-12.1261
▁conduisez	-12.1261
▁Mkwɛ	-12.1261
▁vice	-12.1261
▁délibéré	-12.1261
▁ambassadeur	-12.1262
▁malf	-12.1262
/2	-12.1263
enaires	-12.1263
oiseau	-12.1263
▁dzi	-12.1263
▁conserver	-12.1264
ndje	-12.1264
▁cwɛ	-12.1264
▁redemandé	-12.1264
▁condamnera	-12.1265
▁édifie	-12.1265
▁Communication	-12.1265
▁nulle	-12.1265
▁Shu	-12.1267
▁chér	-12.1267
▁protest	-12.1267
▁Kette	-12.1268
▁mét	-12.1269
▁parvenir	-12.127
lût	-12.127
▁mpàptə	-12.127
▁renversée	-12.127
▁échou	-12.127
▁Nul	-12.1271
▁enseignent	-12.1271
▁pəlɛ	-12.1271
illustration	-12.1272
▁cúŋtə	-12.1272
radi	-12.1272
▁tî	-12.1272
▁Apoll	-12.1273
yth	-12.1273
▁ZH	-12.1273
▁Aminadab	-12.1273
▁Esrom	-12.1273
▁Iconium	-12.1273
▁extraordinaire	-12.1273
▁structure	-12.1273
▁olivier	-12.1273
kwʉǐ	-12.1273
▁arriveront	-12.1273
▁engagement	-12.1273
▁Oba	-12.1273
▁Nou	-12.1273
▁Arabie	-12.1274
▁36	-12.1274
▁débord	-12.1274
▁Observ	-12.1274
▁ŋkhəpʉə	-12.1274
▁kasa	-12.1274
▁gha	-12.1275
▁dʉmnyə	-12.1275
▁Marcel	-12.1275
▁pfʉpfʉ	-12.1275
▁traiter	-12.1276
▁retrouvé	-12.1278
▁mangeons	-12.1278
▁Ponce	-12.128
intervention	-12.128
▁exhorter	-12.128
gɔ	-12.128
▁corbeilles	-12.1281
▁indignés	-12.1281
▁loups	-12.1281
▁réprouvés	-12.1281
▁vipères	-12.1281
▁édifiés	-12.1281
▁charnels	-12.1281
▁Présidentiels	-12.1281
▁entendement	-12.1282
lain	-12.1282
▁cyɔ	-12.1283
▁connaîtrai	-12.1284
▁Gɛla	-12.1284
▁zhəŋka	-12.1285
emportèrent	-12.1287
puissant	-12.1287
▁BE	-12.1287
▁activité	-12.1288
▁évidente	-12.1288
▁pures	-12.1289
▁passées	-12.1289
▁planta	-12.1289
▁comblé	-12.129
▁corrompu	-12.1291
▁ntɔk	-12.1293
▁histo	-12.1293
▁emprisonn	-12.1293
▁abomination	-12.1293
dan	-12.1293
▁BI	-12.1294
▁nyâp	-12.1294
▁kʉɔ	-12.1297
▁apprises	-12.1298
▁mangeait	-12.1298
▁embrassé	-12.1299
▁ntɛ	-12.1299
aŋsí	-12.13
tage	-12.1301
▁nthəmnam	-12.1301
avère	-12.1301
▁imputée	-12.1302
▁Tram	-12.1302
▁engage	-12.1303
▁obtiendr	-12.1303
▁témoign	-12.1303
▁nták	-12.1303
▁précise	-12.1304
▁marient	-12.1304
▁viendrait	-12.1305
▁détournés	-12.1305
▁relâché	-12.1306
▁harpes	-12.1306
▁invisibles	-12.1306
▁profanes	-12.1306
▁retranchés	-12.1306
▁charnelles	-12.1306
obligation	-12.1309
▁taise	-12.1309
ja	-12.131
▁yǎ	-12.1313
▁absence	-12.1313
ection	-12.1314
▁donnait	-12.1315
▁huit	-12.1317
▁Akwa	-12.1317
sakpé	-12.1319
▁vù	-12.1321
▁publié	-12.1321
▁Nthə	-12.1322
isation	-12.1324
tale	-12.1324
▁approchai	-12.1326
▁Tong	-12.1326
▁résolution	-12.1326
▁courant	-12.1326
▁Bala	-12.1327
▁Pfə	-12.1328
▁nthɔkə	-12.1328
▁abattus	-12.1331
▁blanches	-12.1331
▁outragé	-12.1332
huit	-12.1332
étouffe	-12.1332
▁exploitation	-12.1334
▁Haut	-12.1334
▁eunuque	-12.1334
▁MBA	-12.1334
58	-12.1334
▁gardez	-12.1335
▁administration	-12.1336
▁exhortation	-12.1336
▁fû	-12.1338
▁oublie	-12.1338
▁Union	-12.134
▁Mâ	-12.134
▁Beli	-12.1341
▁pɔmnə	-12.1341
▁brûlé	-12.1342
66	-12.1344
▁plaign	-12.1347
▁bà	-12.1347
▁mkhəkhʉ	-12.1351
▁parlerez	-12.1351
okor	-12.1352
express	-12.1353
▁obéissance	-12.1354
▁divisions	-12.1357
▁affranchis	-12.1357
▁médecins	-12.1357
▁procédures	-12.1357
▁fronts	-12.1357
▁tourmentés	-12.1358
▁importe	-12.136
125	-12.1361
rrag	-12.1363
▁nthuŋkw	-12.1364
▁mens	-12.1365
▁Gə	-12.1367
▁Etudi	-12.1369
kò	-12.137
▁changer	-12.137
établissement	-12.137
▁Cyə	-12.1371
▁devancer	-12.1375
▁impureté	-12.1375
▁mtɛ	-12.1375
▁AY	-12.1376
▁CAM	-12.1376
▁taille	-12.1379
orge	-12.138
▁cachées	-12.1381
▁rendez	-12.1387
tourisme	-12.1387
▁Mau	-12.1388
▁rejeton	-12.1388
▁fortifié	-12.139
▁Dá	-12.1393
▁élection	-12.1395
▁découvrir	-12.1397
▁taire	-12.1399
▁entendaient	-12.1399
étudiant	-12.1399
▁swɔptə	-12.14
▁ŋʉm	-12.1401
▁poussa	-12.1409
▁fini	-12.141
▁Soa	-12.1414
▁engagée	-12.1416
▁hu	-12.1416
▁enfanté	-12.1416
▁civile	-12.1417
▁ferait	-12.1417
▁aiguillon	-12.1419
incirconcision	-12.142
▁revien	-12.142
thu	-12.1426
▁dwɔp	-12.1432
▁mortelle	-12.1434
▁réponds	-12.1435
▁%	-12.1436
▁exhort	-12.1436
▁palais	-12.1441
▁four	-12.1444
▁kathə	-12.1444
▁multipl	-12.1444
▁Gen	-12.1446
usent	-12.1449
▁environné	-12.145
▁comparais	-12.1452
▁menaça	-12.1456
▁mcic	-12.1457
▁confi	-12.1462
▁signalé	-12.1464
ntá	-12.1468
▁rachet	-12.1471
ensevelirent	-12.1473
▁soufflet	-12.1474
▁Jeunes	-12.1478
spiration	-12.1482
bor	-12.1494
▁veng	-12.1506
rable	-12.1515
▁Tra	-12.1518
assied	-12.1524
appui	-12.1532
mandons	-12.1542
mbû	-12.1544
▁Lou	-12.1546
▁créanc	-12.1551
liste	-12.1557
sízhyə	-12.156
▁ramass	-12.156
▁décide	-12.156
ido	-12.1565
ivrognerie	-12.1574
▁purifier	-12.1575
adorent	-12.1576
oration	-12.1588
▁ordonn	-12.1589
informer	-12.1605
onction	-12.1609
ŋdeŋ	-12.161
▁exhorta	-12.1612
céan	-12.1619
▁convertir	-12.1637
important	-12.1679
pérer	-12.1681
▁Loi	-12.1687
iront	-12.1693
▁Patric	-12.1695
▁gardera	-12.1695
▁Prof	-12.1697
allion	-12.1704
▁attir	-12.1706
▁kwy	-12.1713
▁moqué	-12.1716
éta	-12.1736
▁Ondo	-12.1747
▁dépenser	-12.176
opol	-12.1774
ôta	-12.1782
▁vivron	-12.1794
alem	-12.1808
appelez	-12.181
▁souillée	-12.1816
aimiez	-12.1822
fəŋnyə	-12.1846
doki	-12.1862
▁destinée	-12.1865
▁vêtue	-12.1871
məkwɛ	-12.188
ambr	-12.1884
axe	-12.1885
ult	-12.1895
cwǐŋ	-12.1898
oignit	-12.1918
▁crier	-12.1923
prenaient	-12.1927
apolis	-12.1938
▁espérer	-12.1939
▁crucifier	-12.194
▁délivrée	-12.1964
80	-12.1965
▁ressemblai	-12.1974
olida	-12.1974
▁brûle	-12.1976
▁dispensat	-12.1979
nna	-12.1986
▁suivie	-12.2015
▁gouverne	-12.2045
fâ	-12.2046
▁rencontr	-12.2057
éens	-12.2063
▁déshonore	-12.2063
▁accusée	-12.207
fection	-12.2076
▁Ngut	-12.2081
▁bénie	-12.2095
enseignement	-12.2098
tendons	-12.21
▁reposer	-12.2106
▁cessa	-12.2116
eurent	-12.2117
▁tressailli	-12.2152
▁4500	-12.2179
adora	-12.2191
▁Bet	-12.2197
ATION	-12.2222
ouviens	-12.2223
cɔk	-12.2243
▁Sta	-12.2265
▁Mik	-12.2268
▁Ŋkhuŋ	-12.2298
▁dévore	-12.233
▁détourner	-12.2367
▁habiter	-12.2391
tiens	-12.2401
accomplisse	-12.2405
ordonne	-12.2438
abandonner	-12.2457
▁Pré	-12.2493
▁jetâ	-12.2504
tentez	-12.2514
onnant	-12.2535
▁sépara	-12.254
▁refus	-12.255
nàm	-12.2584
▁Mnɔ	-12.2587
entendra	-12.2589
camerounweb	-12.2595
▁fuir	-12.261
ness	-12.2612
▁sâk	-12.2623
▁Kwɔ	-12.2623
évent	-12.2631
murent	-12.2633
ius	-12.2639
▁tâ	-12.2641
▁mépriser	-12.2658
Eco	-12.2658
coucher	-12.266
communaut	-12.2684
bɛr	-12.271
empêche	-12.2719
ccident	-12.2728
kəlɑ	-12.2734
▁supplé	-12.2742
▁réclam	-12.275
▁saisie	-12.2751
▁Nga	-12.2768
abandonn	-12.279
▁réclame	-12.2794
▁soupir	-12.2799
▁supplée	-12.2802
mnàm	-12.2804
▁tendres	-12.2808
éni	-12.285
▁commencer	-12.2888
ortez	-12.2899
amerounweb	-12.2952
AT	-12.2953
▁abondant	-12.3004
ock	-12.303
ouli	-12.3055
▁entr	-12.3121
zhə	-12.3136
épi	-12.3149
aviez	-12.3168
inancier	-12.3202
▁spécial	-12.3207
▁lancé	-12.3238
▁expos	-12.3302
OU	-12.3303
▁détourna	-12.3305
amp	-12.3342
▁châti	-12.3342
▁msta	-12.3356
tǎm	-12.3357
anga	-12.338
▁amassera	-12.3408
▁réagi	-12.3431
▁veill	-12.3509
appelai	-12.3549
▁obéi	-12.3573
▁détruir	-12.3603
▁merveilleu	-12.3616
SA	-12.3618
terminé	-12.3622
Amo	-12.3625
ami	-12.3669
▁deven	-12.3751
nthɔk	-12.3763
▁préside	-12.3802
dji	-12.3805
arce	-12.3811
kwyə	-12.3833
▁bronche	-12.3834
▁opér	-12.3852
elier	-12.3869
▁dépense	-12.3896
alie	-12.3902
▁empir	-12.3948
attirer	-12.3963
uisse	-12.3983
▁trompeu	-12.3984
retenez	-12.3999
▁obt	-12.4014
khuŋnyə	-12.4028
aill	-12.4049
échant	-12.4051
llions	-12.4063
emporter	-12.412
▁ivrogne	-12.4131
mettent	-12.4134
ntendant	-12.4135
▁peau	-12.4136
▁bénéficie	-12.4146
dron	-12.416
rlin	-12.4177
yɔjʉm	-12.4185
ccorde	-12.4191
▁évite	-12.4204
▁Vale	-12.4217
▁entraîn	-12.4226
▁ASS	-12.423
▁central	-12.4267
▁multi	-12.4271
▁naît	-12.4279
çait	-12.4283
plié	-12.4284
▁invit	-12.4296
trice	-12.4301
▁GENERA	-12.431
▁foul	-12.432
▁consol	-12.4322
▁rebâti	-12.4324
justement	-12.4328
rgent	-12.433
mettre	-12.4335
▁Arab	-12.4345
▁aiguill	-12.435
▁prédi	-12.4359
▁étudi	-12.436
▁devance	-12.4394
fʉ	-12.4407
fɑ	-12.4415
ondo	-12.4419
▁Cell	-12.4431
▁trafiqu	-12.4438
Alexandri	-12.4441
kwinthɛ	-12.4443
tǎdyə	-12.4445
zhʉ	-12.4448
ghʉ	-12.4449
nviron	-12.445
ghɛ	-12.4454
▁couronn	-12.4467
inrent	-12.4469
laborat	-12.4472
▁nets	-12.4472
puə	-12.4472
▁lib	-12.4473
▁troublé	-12.4474
▁considér	-12.448
pression	-12.4486
▁harpe	-12.4487
▁invisible	-12.4487
▁profane	-12.4487
▁retranché	-12.4487
▁charnelle	-12.4489
▁Hypocrite	-12.4489
▁enflé	-12.4489
▁institution	-12.449
▁verge	-12.4491
▁Samaritain	-12.4491
étude	-12.4491
abus	-12.4491
▁attristé	-12.4492
▁nôtre	-12.4492
▁magistrat	-12.4493
▁bâton	-12.4493
▁malfaiteur	-12.4494
▁Rama	-12.4494
▁chaîne	-12.4495
▁pêcheur	-12.4495
▁vigneron	-12.4495
▁souffrance	-12.4496
▁scribe	-12.4497
issé	-12.4502
▁affligé	-12.4502
wó	-12.4502
emprisonn	-12.4504
Union	-12.4505
abomination	-12.4505
kwítə	-12.4505
▁plaie	-12.4505
histo	-12.4505
obtiendr	-12.4505
▁fourni	-12.4506
accept	-12.4506
vînt	-12.4506
extérieur	-12.4506
Abia	-12.4507
article	-12.4508
bvù	-12.4508
extrémité	-12.4508
Élisabeth	-12.4508
dieu	-12.4508
Aaron	-12.4509
Apollos	-12.4509
V	-12.4509
ajoute	-12.4509
ennemi	-12.451
attente	-12.451
hériter	-12.451
envoyèrent	-12.451
construction	-12.451
▁fatigu	-12.451
sécurité	-12.451
vidéo	-12.451
vide	-12.451
Nord	-12.4511
ancien	-12.4511
derrière	-12.4511
André	-12.4511
annonça	-12.4511
Ésaïe	-12.4511
viendront	-12.4512
obéissent	-12.4512
aujourd	-12.4512
ŋkhɛ	-12.4513
Pilate	-12.4513
ghiŋ	-12.4513
frères	-12.4513
16	-12.4515
tsɑ	-12.4515
ouvrirent	-12.4516
dhə	-12.4516
ardeur	-12.4517
ʉǐ	-12.4518
ourront	-12.4519
Achi	-12.4519
fille	-12.4521
▁rais	-12.4522
vocation	-12.4525
vision	-12.4525
▁retrouv	-12.4526
▁ghǎ	-12.4526
exhorte	-12.4528
▁supporta	-12.4529
nyap	-12.4529
▁resté	-12.4531
▁engendr	-12.4534
gɔp	-12.4535
▁500	-12.4537
▁mgù	-12.4538
▁souffl	-12.4539
ocument	-12.4541
▁présidentiel	-12.4542
▁professionnalis	-12.4545
djoint	-12.4546
essus	-12.4548
damne	-12.4548
▁démocrati	-12.4549
ûreté	-12.455
upérieur	-12.455
▁avancé	-12.4551
▁contest	-12.4551
▁exempl	-12.4553
red	-12.456
kwîp	-12.456
épare	-12.456
onnés	-12.4562
▁afflig	-12.4563
▁gouverner	-12.4564
ommissaire	-12.4566
économ	-12.4566
▁convie	-12.4566
aïn	-12.4566
entrait	-12.4566
onsidère	-12.4566
▁Peu	-12.4566
▁furie	-12.4567
▁repren	-12.4568
khyəp	-12.4569
éplacements	-12.4569
▁provoqu	-12.4569
quit	-12.4569
enveloppa	-12.457
▁rattaché	-12.457
▁magnifi	-12.4571
▁volontaire	-12.4572
▁Tro	-12.4572
group	-12.4572
▁Salue	-12.4573
assassin	-12.4573
artisan	-12.4573
utili	-12.4573
udget	-12.4573
IDA	-12.4574
▁genou	-12.4574
▁cheveu	-12.4574
racles	-12.4574
▁Jour	-12.4574
▁arme	-12.4574
encontre	-12.4574
illage	-12.4575
▁dispers	-12.4575
humili	-12.4575
injure	-12.4575
àwùdè	-12.4575
▁ŊWÂL	-12.4575
▁gratuit	-12.4575
enregistr	-12.4575
adversaire	-12.4575
▁correspond	-12.4575
▁collaborat	-12.4575
Ancien	-12.4575
▁large	-12.4575
achie	-12.4575
impie	-12.4575
AIS	-12.4575
ccueil	-12.4575
▁PRESIDENT	-12.4575
épargne	-12.4575
aménag	-12.4575
opage	-12.4575
NÉRA	-12.4575
▁2021/1	-12.4575
▁Reconnaiss	-12.4575
▁Retourn	-12.4575
▁convers	-12.4575
Adamaoua	-12.4575
ENDA	-12.4575
FSNC	-12.4575
RGE	-12.4575
Sgpr	-12.4575
UNITE	-12.4575
[	-12.4575
accélér	-12.4575
achoppement	-12.4575
albâtre	-12.4575
attribue	-12.4575
avança	-12.4575
chaïque	-12.4575
echnologies	-12.4575
empereur	-12.4575
fforçons	-12.4575
holocaustes	-12.4575
hôtellerie	-12.4575
ibliothèque	-12.4575
ignominie	-12.4575
inquiète	-12.4575
interprétation	-12.4575
méricain	-12.4575
nconsolable	-12.4575
pplication	-12.4575
périssable	-12.4575
rrondissement	-12.4575
xterminateur	-12.4575
Éliakim	-12.4575
écrasera	-12.4575
épousa	-12.4575
étouffèrent	-12.4575
évènement	-12.4575
ŋkwîntɛ	-12.4575
ş	-12.4575
̧	-12.4575
▁0126/	-12.4575
▁Areopago	-12.4575
▁Bafoussam	-12.4575
▁Bafut	-12.4575
▁Barsabas	-12.4575
▁Batəlemi	-12.4575
▁Bayemi	-12.4575
▁Bernike	-12.4575
▁Bertoua	-12.4575
▁Bethphagé	-12.4575
▁Bérénice	-12.4575
▁Bɛnyamɛn	-12.4575
▁CAMEROUN	-12.4575
▁Comptable	-12.4575
▁Considérez	-12.4575
▁Crâne	-12.4575
▁DIEU	-12.4575
▁Dekapoli	-12.4575
▁Demetrio	-12.4575
▁Didyme	-12.4575
▁Dorkas	-12.4575
▁Douze	-12.4575
▁Décapole	-12.4575
▁Démétrius	-12.4575
▁Détenu	-12.4575
▁Dôtəŋlá	-12.4575
▁Ekinɔx	-12.4575
▁Farɛs	-12.4575
▁Gadaréniens	-12.4575
▁Gerasa	-12.4575
▁Golgotha	-12.4575
▁Génézareth	-12.4575
▁Gɔlgota	-12.4575
▁HWÍTƏ	-12.4575
▁Informé	-12.4575
▁Jaïrus	-12.4575
▁Justice	-12.4575
▁Jérémie	-12.4575
▁Kaməlú	-12.4575
▁Klaudia	-12.4575
▁Libéra	-12.4575
▁Lydda	-12.4575
▁Lysias	-12.4575
▁Manaouda	-12.4575
▁Manase	-12.4575
▁Manassé	-12.4575
▁Matériel	-12.4575
▁Naasson	-12.4575
▁Nephthali	-12.4575
▁Ngousso	-12.4575
▁Nuvɛ	-12.4575
▁Nyənyɔ	-12.4575
▁Nɛftali	-12.4575
▁Omega	-12.4575
▁Onesimo	-12.4575
▁Pantekɔtə	-12.4575
▁Pharez	-12.4575
▁Phrygie	-12.4575
▁Phénicie	-12.4575
▁Pɛrge	-12.4575
▁Recevez	-12.4575
▁Reprends	-12.4575
▁Rébecca	-12.4575
▁Réservées	-12.4575
▁SECURITE	-12.4575
▁SERVICE	-12.4575
▁Sadducéens	-12.4575
▁Salathiel	-12.4575
▁Salatiɛl	-12.4575
▁Samuɛl	-12.4575
▁Sardɛs	-12.4575
▁Seneg	-12.4575
▁Stefana	-12.4575
▁Stéphanas	-12.4575
▁Sénat	-12.4575
▁Sénégal	-12.4575
▁Tiberia	-12.4575
▁Tibériade	-12.4575
▁Trophime	-12.4575
▁Yaspɛr	-12.4575
▁Zachée	-12.4575
▁Zorobabel	-12.4575
▁Zorobabɛl	-12.4575
▁adopté	-12.4575
▁affirmé	-12.4575
▁affrontements	-12.4575
▁ajoutée	-12.4575
▁anniversaire	-12.4575
▁aperçu	-12.4575
▁arnaque	-12.4575
▁aromates	-12.4575
▁arrose	-12.4575
▁attribué	-12.4575
▁battirent	-12.4575
▁braise	-12.4575
▁braquage	-12.4575
▁browser	-12.4575
▁brutes	-12.4575
▁byǎnyə	-12.4575
▁candidat	-12.4575
▁centurion	-12.4575
▁chaloupe	-12.4575
▁circu	-12.4575
▁complexe	-12.4575
▁concession	-12.4575
▁conflit	-12.4575
▁convenu	-12.4575
▁convoiter	-12.4575
▁corporel	-12.4575
▁corroyeur	-12.4575
▁croyions	-12.4575
▁cupidité	-12.4575
▁cwəocwəo	-12.4575
▁cɔmmtsò	-12.4575
▁destruction	-12.4575
▁diabolique	-12.4575
▁diadèmes	-12.4575
▁diminu	-12.4575
▁discorde	-12.4575
▁dissensions	-12.4575
▁divorce	-12.4575
▁dwǎlá	-12.4575
▁dénombrement	-12.4575
▁dénonciation	-12.4575
▁dépensé	-12.4575
▁déplor	-12.4575
▁déployé	-12.4575
▁dépôt	-12.4575
▁emprunt	-12.4575
▁enchantements	-12.4575
▁enseignaient	-12.4575
▁escro	-12.4575
▁expressément	-12.4575
▁extase	-12.4575
▁fabriqu	-12.4575
▁fréquente	-12.4575
▁fəlaŋsí	-12.4575
▁global	-12.4575
▁hommage	-12.4575
▁humanitaire	-12.4575
▁hydro	-12.4575
▁hébraïque	-12.4575
▁hérodiens	-12.4575
▁impliqu	-12.4575
▁impétuosité	-12.4575
▁ineffable	-12.4575
▁infructueuse	-12.4575
▁instrument	-12.4575
▁intensif	-12.4575
▁kilikia	-12.4575
▁libérer	-12.4575
▁licteurs	-12.4575
▁martyr	-12.4575
▁milliard	-12.4575
▁mnúb	-12.4575
▁msəŋgɔpf	-12.4575
▁multipliées	-12.4575
▁mɑnthá	-12.4575
▁navigation	-12.4575
▁navigu	-12.4575
▁navire	-12.4575
▁nigérien	-12.4575
▁nécessité	-12.4575
▁onzième	-12.4575
▁originaire	-12.4575
▁persist	-12.4575
▁pfuə	-12.4575
▁philosoph	-12.4575
▁profér	-12.4575
▁promptitude	-12.4575
▁prudence	-12.4575
▁précédemment	-12.4575
▁prédicateur	-12.4575
▁prérogative	-12.4575
▁prévue	-12.4575
▁période	-12.4575
▁périssons	-12.4575
▁quadrupèdes	-12.4575
▁rapine	-12.4575
▁recrutement	-12.4575
▁releva	-12.4575
▁relevé	-12.4575
▁remarier	-12.4575
▁renard	-12.4575
▁renoncé	-12.4575
▁retenir	-12.4575
▁rémunérat	-12.4575
▁réveillèrent	-12.4575
▁samaritaine	-12.4575
▁scolaires	-12.4575
▁secrètement	-12.4575
▁sexagénaire	-12.4575
▁signature	-12.4575
▁superflu	-12.4575
▁suscitera	-12.4575
▁sécessionniste	-12.4575
▁sévérité	-12.4575
▁terrain	-12.4575
▁terrible	-12.4575
▁touchât	-12.4575
▁tranchées	-12.4575
▁trempé	-12.4575
▁tribalis	-12.4575
▁təkùŋkûŋ	-12.4575
▁universitaire	-12.4575
▁vieillard	-12.4575
▁violemment	-12.4575
▁volontiers	-12.4575
▁Épaphr	-12.4575
▁Éraste	-12.4575
▁égarée	-12.4575
▁évalué	-12.4575
▁ŋkhənthú	-12.4575
GHƆ	-12.4575
analyse	-12.4575
explosion	-12.4575
▁Africaines	-12.4575
▁Commande	-12.4575
▁Fortifi	-12.4575
▁Groupe	-12.4575
▁Yohana	-12.4575
▁captive	-12.4575
▁falsifi	-12.4575
▁illégale	-12.4575
▁légère	-12.4575
▁nyàptə	-12.4575
▁nənyáp	-12.4575
▁recour	-12.4575
▁retranche	-12.4575
▁réguli	-12.4575
▁réunis	-12.4575
▁séché	-12.4575
▁téléphoni	-12.4575
▁victorieu	-12.4575
▁Ésaü	-12.4575
RGA	-12.4575
convoqué	-12.4575
impute	-12.4575
mprime	-12.4575
▁Pardonne	-12.4575
▁Pergam	-12.4575
▁Résiden	-12.4575
▁aplanis	-12.4575
▁concert	-12.4575
▁conseiller	-12.4575
▁construis	-12.4575
▁contredisant	-12.4575
▁côtoy	-12.4575
▁mcyanyə	-12.4575
▁nettoie	-12.4575
▁profondément	-12.4575
▁pénale	-12.4575
▁pénurie	-12.4575
▁tronc	-12.4575
▁équipe	-12.4575
hymne	-12.4575
réglé	-12.4575
▁Bɛrtu	-12.4575
▁Eliakim	-12.4575
▁Perge	-12.4575
▁bienheureux	-12.4575
▁carrière	-12.4575
▁censura	-12.4575
▁cohéritiers	-12.4575
▁embarqués	-12.4575
▁homologu	-12.4575
▁indisp	-12.4575
▁jeûné	-12.4575
▁recens	-12.4575
▁redresser	-12.4575
▁salive	-12.4575
▁torturé	-12.4575
▁écrirai	-12.4575
▁ŋkhəŋkhʉɔ	-12.4575
allèg	-12.4575
disciplin	-12.4575
immense	-12.4575
▁Abba	-12.4575
▁Midi	-12.4575
▁caution	-12.4575
▁donnons	-12.4575
▁grandiose	-12.4575
▁incarne	-12.4575
▁miroir	-12.4575
▁myrrhe	-12.4575
▁obligea	-12.4575
▁recommandations	-12.4575
▁type	-12.4575
Magasin	-12.4575
▁Crois	-12.4575
▁Macédoniens	-12.4575
▁amassé	-12.4575
▁double	-12.4575
▁météo	-12.4575
▁ressouv	-12.4575
apparition	-12.4575
ignée	-12.4575
▁Bilingu	-12.4575
▁boisseau	-12.4575
▁concentre	-12.4575
▁désobéissance	-12.4575
▁manœuvre	-12.4575
▁maudira	-12.4575
▁raisonnements	-12.4575
actère	-12.4575
ographi	-12.4575
▁Grave	-12.4575
▁Humili	-12.4575
▁attentive	-12.4575
▁bourreaux	-12.4575
▁liaison	-12.4575
▁Mettez	-12.4575
▁dompte	-12.4575
▁intéressé	-12.4575
▁mangiez	-12.4575
▁observateur	-12.4575
▁spécialisé	-12.4575
▁Prêch	-12.4575
▁roya	-12.4575
airain	-12.4575
obje	-12.4575
▁Booz	-12.4575
▁mfǎ	-12.4575
▁païen	-12.4575
▁recondui	-12.4575
▁Démas	-12.4575
▁jointures	-12.4575
zhaŋ	-12.4575
▁Demeure	-12.4575
▁PRESIDENTIELLE	-12.4575
▁agression	-12.4575
▁valez	-12.4575
▁confort	-12.4575
▁ingrat	-12.4575
▁libéré	-12.4575
▁vengera	-12.4575
▁fótò	-12.4575
▁vieilli	-12.4575
▁bienfait	-12.4576
▁choix	-12.4576
NGUE	-12.4576
asteur	-12.4576
▁Langue	-12.4576
▁courtisan	-12.4576
▁pədɔ	-12.4576
▁NATIONALE	-12.4576
▁tundyə	-12.4576
▁dʉmtʉm	-12.4576
▁échappé	-12.4576
▁bloqu	-12.4576
▁habil	-12.4576
▁voyaient	-12.4576
▁səŋgɔp	-12.4576
▁porche	-12.4576
▁préceptes	-12.4576
▁Matat	-12.4576
▁abreuvé	-12.4576
▁ancres	-12.4576
▁angoisses	-12.4576
▁taillé	-12.4576
▁épaul	-12.4576
Radio	-12.4576
▁diffère	-12.4576
▁dissimulation	-12.4576
▁portière	-12.4576
▁Lɛtə	-12.4576
▁identifié	-12.4576
▁fouetté	-12.4576
▁dzá	-12.4576
▁mourons	-12.4576
klia	-12.4576
▁bouillant	-12.4576
▁Retire	-12.4576
gwîŋ	-12.4576
IVI	-12.4576
▁correspondance	-12.4576
▁contenue	-12.4576
▁cristal	-12.4576
▁virement	-12.4576
▁bénissons	-12.4576
▁routi	-12.4576
encre	-12.4576
valoir	-12.4576
▁mthɔm	-12.4576
tabilité	-12.4576
▁requête	-12.4576
continence	-12.4576
▁Siloé	-12.4576
▁ŊWÂLǍ	-12.4576
envisage	-12.4576
▁balay	-12.4576
▁mkhəty	-12.4576
▁neige	-12.4576
▁poupe	-12.4576
▁abri	-12.4576
▁ressources	-12.4576
▁rigueur	-12.4576
▁résume	-12.4576
▁shyá	-12.4576
echnique	-12.4576
▁ressortis	-12.4576
▁Mekin	-12.4576
▁active	-12.4576
▁potier	-12.4576
▁inconnus	-12.4576
▁indignes	-12.4576
▁combattants	-12.4576
▁montâmes	-12.4576
▁étudiants	-12.4576
térité	-12.4576
▁développement	-12.4576
▁cadeaux	-12.4576
▁défaill	-12.4576
▁dixième	-12.4576
▁louerai	-12.4576
légué	-12.4576
▁connaisse	-12.4576
▁bénissant	-12.4576
▁lecture	-12.4576
ntâm	-12.4576
▁gouvernementale	-12.4576
▁retenti	-12.4576
▁2006	-12.4576
▁initié	-12.4576
▁largeur	-12.4576
▁brouss	-12.4576
rod	-12.4576
CMT	-12.4577
▁mutation	-12.4577
▁adonné	-12.4577
habitat	-12.4577
▁Demas	-12.4577
▁mghǎmthɔ	-12.4577
▁moissonneurs	-12.4577
▁financement	-12.4577
▁soumission	-12.4577
éducati	-12.4577
▁dissou	-12.4577
ghâp	-12.4577
▁sûrement	-12.4577
▁Herm	-12.4577
▁mkúŋ	-12.4577
▁Plus	-12.4577
▁Bonne	-12.4577
▁opprobres	-12.4577
▁Siloe	-12.4577
▁renseignement	-12.4577
▁hôte	-12.4577
▁ramp	-12.4577
▁commerce	-12.4577
▁pɔmtʉɔ	-12.4577
▁châtiés	-12.4577
▁haïssent	-12.4577
opposai	-12.4577
édical	-12.4577
▁roule	-12.4577
▁Koza	-12.4577
▁longueur	-12.4577
▁déguise	-12.4577
▁utilis	-12.4577
▁préserver	-12.4577
▁facile	-12.4577
▁user	-12.4577
▁Beza	-12.4577
▁bâtiments	-12.4577
▁Budget	-12.4577
▁Regardez	-12.4577
▁sévi	-12.4577
▁Kwě	-12.4577
▁fervent	-12.4577
▁2008	-12.4577
VE	-12.4577
▁importante	-12.4577
▁certificat	-12.4577
▁circonstance	-12.4577
▁épis	-12.4577
▁expir	-12.4577
▁marchaient	-12.4577
▁revoir	-12.4578
assistance	-12.4578
▁spam	-12.4578
▁mourrait	-12.4578
▁excessivement	-12.4578
▁changement	-12.4578
▁réjouissent	-12.4578
abstien	-12.4578
▁Nouma	-12.4578
▁enfantera	-12.4578
▁mkwí	-12.4578
▁scandalisés	-12.4578
ncement	-12.4578
▁cwě	-12.4578
▁Akel	-12.4578
▁Yuli	-12.4578
▁ntǔ	-12.4578
▁recru	-12.4578
▁coaccusé	-12.4578
▁ornée	-12.4578
Espagn	-12.4578
ntio	-12.4578
▁nthwɔk	-12.4578
▁appliqué	-12.4578
▁officielles	-12.4578
tration	-12.4578
▁Boos	-12.4578
cwyə	-12.4578
▁discussion	-12.4578
▁exécuté	-12.4578
▁chaste	-12.4578
CAN	-12.4578
cités	-12.4579
▁Voul	-12.4579
▁épouvanté	-12.4579
▁Beaux	-12.4579
▁Distribution	-12.4579
▁honorez	-12.4579
▁retient	-12.4579
▁soumet	-12.4579
▁vante	-12.4579
▁cho	-12.4579
▁expliquait	-12.4579
▁volontairement	-12.4579
▁mtsɛ	-12.4579
▁támbɛ	-12.4579
▁2001	-12.4579
MUN	-12.4579
▁quadr	-12.4579
AꞋ	-12.4579
▁vendange	-12.4579
NGA	-12.458
augment	-12.458
▁révéler	-12.458
▁Time	-12.458
▁bwǎdzʉ	-12.458
▁prove	-12.458
observaient	-12.458
▁achetaient	-12.458
▁Renvoie	-12.458
▁198	-12.458
▁Béli	-12.458
▁exhortons	-12.458
identifi	-12.458
▁précipita	-12.458
▁suivez	-12.458
▁solide	-12.458
▁plaît	-12.458
▁vieilles	-12.458
▁regi	-12.458
▁Mbanga	-12.458
▁projette	-12.4581
▁SEC	-12.4581
organ	-12.4581
▁chev	-12.4581
▁haïront	-12.4581
▁mûkǔ	-12.4581
▁joint	-12.4581
accusaient	-12.4581
▁renvoie	-12.4581
▁répondront	-12.4581
▁deuxième	-12.4581
▁formation	-12.4581
vian	-12.4581
▁Cwəpuŋ	-12.4581
▁courrier	-12.4581
▁plaise	-12.4581
UE	-12.4581
▁Déplacements	-12.4581
▁nthɑ	-12.4582
0)	-12.4582
▁prendrai	-12.4582
▁considérer	-12.4582
émer	-12.4582
▁60	-12.4582
levât	-12.4582
▁Gali	-12.4582
▁accourut	-12.4582
▁persécutait	-12.4582
▁rassemblement	-12.4582
culé	-12.4582
▁vendre	-12.4583
▁contester	-12.4583
▁Apolin	-12.4583
apparaîtra	-12.4583
fcfa	-12.4583
▁comptés	-12.4583
▁recommandons	-12.4583
▁cruche	-12.4583
▁ghá	-12.4583
▁habitation	-12.4584
décerné	-12.4584
▁vivait	-12.4584
▁Bvʉ	-12.4584
▁pourrais	-12.4584
▁soirée	-12.4584
▁retirez	-12.4584
▁cuivre	-12.4584
percer	-12.4584
▁déposition	-12.4584
riminalit	-12.4584
▁mŋɛ	-12.4585
hyat	-12.4585
lly	-12.4585
▁cwətəsi	-12.4585
▁dangereux	-12.4585
pater	-12.4585
▁conservation	-12.4585
▁commissaire	-12.4585
▁mápfʉə	-12.4586
▁Parti	-12.4586
▁exprès	-12.4586
undj	-12.4586
loire	-12.4586
▁interrogez	-12.4586
▁soufflé	-12.4586
▁édifier	-12.4586
▁sûr	-12.4586
▁Ponto	-12.4586
▁guérissait	-12.4586
accommod	-12.4587
auré	-12.4587
ôtel	-12.4587
▁jeûneront	-12.4587
▁rappeler	-12.4587
ignorer	-12.4587
▁régneront	-12.4587
▁consolez	-12.4588
▁Esau	-12.4588
▁RÉ	-12.4588
▁discut	-12.4588
▁condamner	-12.4588
▁possédait	-12.4589
▁kǒdyə	-12.4589
▁Cédr	-12.4589
▁convaincre	-12.4589
▁bvəvə	-12.4589
▁PME	-12.4589
▁euro	-12.4589
incompréhensible	-12.4589
▁troupeaux	-12.4589
▁Epafra	-12.459
▁prosélyte	-12.459
▁jeûner	-12.459
▁rejeter	-12.459
ətâ	-12.459
▁manqué	-12.459
▁croiront	-12.459
▁reproché	-12.4591
▁risque	-12.4591
▁shwâgə	-12.4591
▁suivrai	-12.4591
▁passaient	-12.4591
▁Gad	-12.4592
prouvez	-12.4592
▁figə	-12.4592
▁prote	-12.4592
▁Dhə	-12.4592
IM	-12.4592
▁Twɔ	-12.4592
imparfaitement	-12.4592
▁séduisant	-12.4592
▁reprises	-12.4592
▁vendit	-12.4592
▁manifestes	-12.4592
▁Séra	-12.4592
▁ordonner	-12.4593
▁voulurent	-12.4593
▁exer	-12.4593
▁aider	-12.4593
▁lisait	-12.4593
Corruption	-12.4593
pposez	-12.4593
▁punir	-12.4593
álá	-12.4593
▁Hier	-12.4593
▁pensait	-12.4593
▁rompait	-12.4593
▁valent	-12.4594
▁rejoint	-12.4594
▁salon	-12.4594
▁commission	-12.4594
▁Fyə	-12.4594
▁accepté	-12.4595
▁shɔmnwə	-12.4595
▁buvez	-12.4595
▁produise	-12.4595
▁prendra	-12.4595
▁saluez	-12.4595
▁satisfait	-12.4595
▁Centrafricain	-12.4596
olar	-12.4596
▁pleurait	-12.4596
▁132	-12.4596
cède	-12.4596
bara	-12.4596
▁subsistent	-12.4596
▁yabɔ	-12.4596
▁Syr	-12.4597
ureté	-12.4597
lisme	-12.4597
▁admirable	-12.4598
▁Ousse	-12.4598
constitution	-12.4598
▁craignent	-12.4598
▁misère	-12.4598
onia	-12.4599
▁dəmcá	-12.4599
▁consoler	-12.4599
▁jwé	-12.4599
▁moquant	-12.46
choni	-12.46
▁Emma	-12.46
▁croirez	-12.4601
▁démocratie	-12.4601
▁gouvernera	-12.4602
dicat	-12.4602
lore	-12.4602
▁Condamn	-12.4602
▁Enɔk	-12.4602
marad	-12.4602
▁assujetties	-12.4603
▁déclin	-12.4603
guŋgwyə	-12.4603
▁yàk	-12.4603
▁Gog	-12.4603
aveur	-12.4604
▁jurer	-12.4604
▁affectée	-12.4605
▁baŋk	-12.4605
▁soutient	-12.4605
▁retirent	-12.4605
▁souiller	-12.4605
▁pareil	-12.4606
▁périssent	-12.4606
▁ŋkwà	-12.4606
riste	-12.4607
▁syn	-12.4607
▁distinction	-12.4607
▁nthamnth	-12.4608
▁Gǎ	-12.4609
▁bvu	-12.4609
▁Tǎ	-12.4609
▁cyâ	-12.461
▁mcyəpɔ	-12.461
Hébreux	-12.4611
▁vacciner	-12.4612
èle	-12.4612
▁commises	-12.4612
▁Bul	-12.4612
▁Gre	-12.4613
pati	-12.4613
ŋfɔmatîk	-12.4613
bǐ	-12.4614
▁chasseront	-12.4614
▁montent	-12.4615
gissez	-12.4615
▁usant	-12.4615
emon	-12.4615
▁Sois	-12.4615
▁prosternant	-12.4616
lias	-12.4617
▁Mele	-12.4618
▁déterminée	-12.4618
▁Tɛr	-12.4619
kasi	-12.4619
▁fosse	-12.462
nance	-12.462
▁khɔ	-12.4621
▁habitez	-12.4621
▁coût	-12.4623
▁haie	-12.4623
▁cana	-12.4623
▁Matthath	-12.4625
▁bienséan	-12.4626
▁prêchez	-12.4627
▁troubler	-12.4628
idée	-12.4628
▁demandait	-12.4629
▁tranquille	-12.4629
▁Ntʉ	-12.4629
▁haïra	-12.463
▁consommé	-12.4631
▁retenue	-12.4632
khəkhə	-12.4632
▁Bʉ	-12.4632
▁Tsɔ	-12.4633
▁mtsì	-12.4633
éveill	-12.4634
léopa	-12.4634
▁rétablir	-12.4635
▁présentement	-12.4636
vesti	-12.4636
zí	-12.4637
ède	-12.4638
▁encourron	-12.4639
▁fatigué	-12.4641
nduis	-12.4643
▁rapporter	-12.4644
▁enflammé	-12.4644
▁Autre	-12.4644
▁opéré	-12.4645
▁kyəptʉ	-12.4647
▁fournit	-12.4647
paraît	-12.4647
▁clame	-12.4649
▁affermisse	-12.4655
▁verte	-12.4655
▁Diabl	-12.4657
▁exhorté	-12.4659
▁préservé	-12.466
▁infâme	-12.4662
▁termin	-12.4662
aigr	-12.4663
GOU	-12.4672
▁détourn	-12.4676
▁naturelle	-12.4676
▁intérieure	-12.468
▁contin	-12.468
▁consolé	-12.4682
▁combler	-12.4689
▁Emil	-12.4693
▁rappelé	-12.4693
sana	-12.4695
uveur	-12.4697
invent	-12.4699
kodyə	-12.471
▁repouss	-12.4717
▁effectue	-12.4718
▁stratégie	-12.4719
▁parvenue	-12.472
nsable	-12.4722
anche	-12.4723
ractions	-12.4729
xamen	-12.4735
▁recueille	-12.4744
bap	-12.4747
kzh	-12.4758
tɔkvʉ	-12.4758
▁tentat	-12.4762
thɔk	-12.4764
▁Barbar	-12.4766
onstitutionnel	-12.477
exprimer	-12.4776
▁curieuse	-12.4782
ébranler	-12.4786
▁cracher	-12.4787
égalité	-12.4794
▁attendu	-12.4797
honnêteté	-12.4807
▁heb	-12.481
GW	-12.4821
▁mutuel	-12.4826
▁rebâtir	-12.4833
▁détourné	-12.4838
▁recevrai	-12.4839
▁GENERALE	-12.4847
▁limite	-12.486
▁conservé	-12.486
▁compati	-12.4865
wanwə	-12.4866
tature	-12.4874
électr	-12.4883
ghě	-12.4885
▁ambiti	-12.4891
▁Ark	-12.4897
SSO	-12.4939
anéantira	-12.4939
ôter	-12.4945
▁répandrai	-12.4945
isiblement	-12.4961
▁coordonn	-12.4978
▁secoué	-12.4981
IEL	-12.4982
Rose	-12.4982
tutuŋ	-12.4987
ommunautaire	-12.5002
CHE	-12.5003
stern	-12.5007
▁gwá	-12.5076
aŋzh	-12.5083
otos	-12.5097
gra	-12.5102
▁satisfa	-12.5106
rabes	-12.5113
UX	-12.5114
iriez	-12.5134
▁Lutt	-12.5145
App	-12.517
hwě	-12.5173
inthe	-12.5189
▁cousin	-12.519
▁financ	-12.519
▁juif	-12.5199
Add	-12.5208
▁interven	-12.5223
hâ	-12.5245
sháŋ	-12.5274
▁respecter	-12.529
▁préven	-12.5295
▁convertiss	-12.5296
▁haïssa	-12.5311
▁promen	-12.5323
▁Sab	-12.5324
beaux	-12.5325
naknyə	-12.5327
▁chauss	-12.5352
▁différente	-12.536
▁définit	-12.5368
▁broncher	-12.5396
ü	-12.5441
▁séjourn	-12.5442
établit	-12.5457
▁consenti	-12.5467
aîtra	-12.547
délit	-12.5475
▁relèvera	-12.5484
▁cherché	-12.5497
▁lèverai	-12.5503
▁douter	-12.5532
▁Sauve	-12.5543
▁essai	-12.5569
▁bris	-12.5571
étonne	-12.5575
IRE	-12.5586
▁consente	-12.5599
mond	-12.566
▁suffisan	-12.5681
ɛzhí	-12.5709
ormez	-12.5722
▁Tib	-12.5778
▁remett	-12.5799
expose	-12.5822
oyer	-12.5865
▁contr	-12.5865
▁amasser	-12.5896
NTƏ	-12.5913
▁surprenne	-12.5974
écouteront	-12.6
honorer	-12.6029
arriver	-12.6041
▁comble	-12.6051
▁reven	-12.6061
nique	-12.607
▁remettr	-12.6103
ancée	-12.6117
▁entrepreneur	-12.616
NK	-12.6388
fǔ	-12.6401
ubà	-12.6403
tenez	-12.6417
▁Juli	-12.6432
aurait	-12.6465
pond	-12.6474
▁195	-12.6478
iture	-12.6525
▁sumɔ	-12.6575
évangéliste	-12.6594
▁embar	-12.6607
▁Sera	-12.6618
▁troubl	-12.6751
▁recueillir	-12.6752
invoquer	-12.676
▁tendre	-12.6774
core	-12.6784
▁zhəŋk	-12.6784
khu	-12.6835
▁étendu	-12.686
ozy	-12.6875
▁remet	-12.6886
▁sépar	-12.6905
▁évangélis	-12.6952
▁consent	-12.6961
▁Repen	-12.6963
strict	-12.697
▁subir	-12.6971
▁dénonc	-12.7019
violente	-12.7029
étonnai	-12.703
▁purifi	-12.7149
dicte	-12.7162
▁justifi	-12.7189
▁contenti	-12.7193
▁FOGU	-12.7358
▁Mghəts	-12.7371
▁rentré	-12.7429
nveloppe	-12.7458
nancier	-12.7475
occup	-12.7479
kwìŋ	-12.7553
dict	-12.7564
ike	-12.7571
▁honor	-12.7579
izo	-12.7583
▁reconnaît	-12.7645
rag	-12.7648
ŋkák	-12.7731
▁tressaill	-12.7767
placés	-12.7774
lvin	-12.7776
▁mtǎm	-12.7802
▁recueill	-12.7824
apparten	-12.7862
éclair	-12.789
▁livr	-12.7979
▁Gab	-12.7982
▁mesura	-12.8192
▁mesurer	-12.8229
▁marqu	-12.8254
nquant	-12.8271
▁expliqu	-12.8274
▁ravir	-12.8295
aü	-12.8302
amass	-12.8317
▁mnthá	-12.8337
▁arriv	-12.839
▁partag	-12.8408
éalisation	-12.8434
▁défini	-12.8437
nthe	-12.8502
venait	-12.8509
mettez	-12.856
▁survie	-12.8574
▁Recherch	-12.8637
guère	-12.8651
▁grosse	-12.8654
X	-12.8685
ONS	-12.8688
eufs	-12.8695
▁comm	-12.8721
▁ébranl	-12.8728
ətû	-12.8801
▁Mkət	-12.8831
cident	-12.8864
kheŋnyə	-12.8866
▁implic	-12.8905
▁reviendra	-12.8905
HE	-12.8927
ormation	-12.8973
oudront	-12.8995
acheter	-12.9004
instruis	-12.9006
▁sauv	-12.9016
▁intemp	-12.9053
eign	-12.9055
anières	-12.9088
▁Bink	-12.9096
▁compat	-12.9119
▁statu	-12.9122
▁limit	-12.9129
▁effray	-12.9157
nclusion	-12.9189
▁élect	-12.9195
▁ouvr	-12.9205
▁signifi	-12.9242
▁personn	-12.9243
viens	-12.9246
▁achev	-12.9254
▁parvenu	-12.9261
arbare	-12.9266
Intendan	-12.9288
▁change	-12.929
▁Grand	-12.931
▁persua	-12.9322
conomi	-12.9328
ʉîp	-12.9329
▁stratégi	-12.9344
ignant	-12.9345
vertis	-12.9351
éralement	-12.9361
rrivé	-12.9375
▁oblig	-12.9385
racinés	-12.9387
▁pɔmn	-12.9394
uffer	-12.9394
▁humain	-12.9402
▁lourd	-12.941
robi	-12.9431
encha	-12.9436
nseigne	-12.9447
xhorte	-12.9448
viŋ	-12.9449
▁Présidentiel	-12.946
saumes	-12.947
▁bless	-12.947
verra	-12.947
uérisse	-12.9472
▁charnel	-12.9483
▁corbeille	-12.9488
▁indigné	-12.9488
▁vipère	-12.9488
▁édifié	-12.9488
▁réprouvé	-12.9488
▁loup	-12.949
▁domestique	-12.949
▁fornicateur	-12.949
▁idolâtre	-12.949
▁Akila	-12.949
▁Matthat	-12.9494
▁Israélite	-12.9495
▁fonctionnaire	-12.9495
▁ordonnance	-12.9496
▁larme	-12.9499
stim	-12.95
Apoll	-12.9505
khʉdʉ	-12.9505
Observ	-12.9505
édifie	-12.9505
Aminadab	-12.9505
Arabie	-12.9505
Esrom	-12.9505
Iconium	-12.9505
Marcel	-12.9505
extraordinaire	-12.9505
structure	-12.9505
olivier	-12.9505
prenant	-12.9507
disposé	-12.9507
obscurci	-12.9507
crut	-12.9507
ZH	-12.9507
impotent	-12.9507
CamerounWeb	-12.9508
humilité	-12.9508
Ordre	-12.9508
objectif	-12.9508
▁illustr	-12.9508
oubli	-12.9509
Ambassadeur	-12.9509
Etoudi	-12.9509
Étienne	-12.9509
Soa	-12.9509
court	-12.9509
Anti	-12.951
Orange	-12.951
exige	-12.951
incirconcis	-12.951
CHA	-12.951
efficace	-12.951
incrédulité	-12.951
pourvu	-12.951
vécu	-12.951
ville	-12.951
sîsǐ	-12.9511
Bet	-12.9511
hodes	-12.9511
échoue	-12.9511
Á	-12.9511
arrivée	-12.9511
Éphèse	-12.9512
recev	-12.9512
racine	-12.9512
apôtre	-12.9512
président	-12.9512
ŋaknyə	-12.9512
services	-12.9512
agréable	-12.9512
maris	-12.9512
Adam	-12.9512
envoyé	-12.9512
xpres	-12.9512
quoiqu	-12.9513
auparavant	-12.9513
tɑpe	-12.9513
ensemble	-12.9513
lingui	-12.9513
KAM	-12.9513
arriva	-12.9513
06	-12.9513
sabat	-12.9513
science	-12.9513
alors	-12.9514
trois	-12.9514
Paul	-12.9514
nouveau	-12.9514
Saint	-12.9514
ainsi	-12.9514
Amen	-12.9515
ŋkáp	-12.9515
cəŋtə	-12.9516
65	-12.9522
▁distinct	-12.9524
Dja	-12.9525
bert	-12.9528
▁révél	-12.953
▁piŋnthʉ	-12.9534
▁craint	-12.9534
▁pǒmsə	-12.9536
▁Ebolo	-12.9536
pouse	-12.9539
ifficile	-12.954
emandez	-12.954
▁fêt	-12.9541
▁bénéfici	-12.9544
phe	-12.9544
rruption	-12.9545
▁bwǎ	-12.9545
▁bronch	-12.9545
efforce	-12.9546
hwâgə	-12.9548
iendront	-12.955
▁risqu	-12.955
quête	-12.955
xcellen	-12.9551
ociété	-12.9551
▁cyǎ	-12.9552
▁Epafr	-12.9552
ouverain	-12.9552
erviteurs	-12.9553
tisée	-12.9554
▁Travail	-12.9555
combie	-12.9555
▁Bamend	-12.9555
▁ambassade	-12.9556
niversité	-12.9557
commode	-12.9558
lègue	-12.9558
obéiss	-12.9558
rban	-12.956
viendrai	-12.956
193	-12.9561
istance	-12.9562
▁persécutai	-12.9564
▁accouru	-12.9564
wʉǐ	-12.9565
▁immol	-12.9565
omptés	-12.9566
ourrier	-12.9566
▁Yaound	-12.9566
anjo	-12.9567
mnthɔ	-12.9568
ugmente	-12.9569
▁médis	-12.957
▁apais	-12.957
▁Just	-12.957
forcé	-12.957
ERA	-12.9571
oujours	-12.9571
▁ambazony	-12.9571
emps	-12.9571
▁excessive	-12.9572
endredi	-12.9572
▁Regarde	-12.9572
▁mourra	-12.9572
hambre	-12.9572
figur	-12.9572
eindra	-12.9572
▁génér	-12.9573
édica	-12.9573
▁Officie	-12.9573
ouillant	-12.9573
ncier	-12.9573
▁prophét	-12.9573
onchon	-12.9574
▁juridi	-12.9574
nantes	-12.9574
▁rebell	-12.9574
mərun	-12.9574
▁cadeau	-12.9574
▁développ	-12.9574
rogramme	-12.9574
▁Certain	-12.9574
▁Guin	-12.9574
▁ressort	-12.9574
▁fouet	-12.9574
bril	-12.9574
essources	-12.9574
evêtez	-12.9574
esponsables	-12.9574
râŋsi	-12.9574
▁querell	-12.9574
roulé	-12.9574
onctionnaire	-12.9574
oureuse	-12.9575
eaucoup	-12.9575
effac	-12.9575
015	-12.9575
angoisse	-12.9575
▁magist	-12.9575
▁macab	-12.9575
Homme	-12.9575
▁adult	-12.9575
igueur	-12.9575
stien	-12.9575
▁Gamali	-12.9575
▁Kris	-12.9575
associ	-12.9575
▁MINIST	-12.9575
°2021/	-12.9575
▁audition	-12.9575
splend	-12.9575
vindi	-12.9575
Ù	-12.9575
éniens	-12.9575
roché	-12.9575
▁PRESIDENTIEL	-12.9575
▁sancti	-12.9575
▁Nkanmo	-12.9575
www	-12.9575
▁renfor	-12.9575
acédonien	-12.9575
sopotami	-12.9575
▁Nkolf	-12.9575
ophile	-12.9575
▁meubl	-12.9575
▁ntíti	-12.9575
pénétra	-12.9575
Hénoc	-12.9575
accessib	-12.9575
habille	-12.9575
ḿ	-12.9575
ṇ	-12.9575
▁269)	-12.9575
▁Approche	-12.9575
▁chryso	-12.9575
▁irrév	-12.9575
BɄƏ	-12.9575
institut	-12.9575
phonie	-12.9575
▁Beiji	-12.9575
▁Craign	-12.9575
▁Dalmanut	-12.9575
▁Diversité	-12.9575
▁Efforce	-12.9575
▁Nkoaba	-12.9575
▁bouffon	-12.9575
▁contreband	-12.9575
▁législati	-12.9575
▁méconn	-12.9575
17/2018	-12.9575
5477	-12.9575
5490	-12.9575
ARDE	-12.9575
ARI	-12.9575
Ambazonie	-12.9575
Anecdote	-12.9575
Aristobul	-12.9575
Ascer	-12.9575
CELL	-12.9575
CHRIST	-12.9575
EURS	-12.9575
Eglise	-12.9575
Euphrate	-12.9575
Extrême	-12.9575
FENSE	-12.9575
Informatique	-12.9575
NCE	-12.9575
ONUSIDA	-12.9575
Onésiphore	-12.9575
PART	-12.9575
SANT	-12.9575
Zlecaf	-12.9575
actualité	-12.9575
affliger	-12.9575
anéantis	-12.9575
apaisèrent	-12.9575
aperçoi	-12.9575
appropri	-12.9575
architecte	-12.9575
argile	-12.9575
arrêtèrent	-12.9575
assword	-12.9575
attrapé	-12.9575
bonaberi	-12.9575
ctifie	-12.9575
cybercriminalité	-12.9575
examiner	-12.9575
existence	-12.9575
exploitant	-12.9575
explosifs	-12.9575
importune	-12.9575
intermédia	-12.9575
interpréter	-12.9575
libération	-12.9575
ontexte	-12.9575
phos	-12.9575
ppodrome	-12.9575
psycho	-12.9575
quatrièmepouvoir	-12.9575
quisitions	-12.9575
subordination	-12.9575
urkinab	-12.9575
©	-12.9575
Éliud	-12.9575
Éléazar	-12.9575
Éthiopie	-12.9575
Ézéchias	-12.9575
Ô	-12.9575
écentralisé	-12.9575
émeraude	-12.9575
énorme	-12.9575
éteigne	-12.9575
étrangla	-12.9575
ùŋtsě	-12.9575
ŵ	-12.9575
▁016)	-12.9575
▁1943	-12.9575
▁1960	-12.9575
▁1962	-12.9575
▁1964	-12.9575
▁1975	-12.9575
▁1992	-12.9575
▁1997	-12.9575
▁2021/2022	-12.9575
▁2022	-12.9575
▁6072	-12.9575
▁90%	-12.9575
▁9841	-12.9575
▁ADJOINT	-12.9575
▁AMBAS	-12.9575
▁Alsheaibya	-12.9575
▁Androni	-12.9575
▁Anquièe	-12.9575
▁Antipatri	-12.9575
▁Anɛkdɔ	-12.9575
▁Archippe	-12.9575
▁Avocat	-12.9575
▁Azɔr	-12.9575
▁BAJAT	-12.9575
▁Bagante	-12.9575
▁Bamesso	-12.9575
▁Bangangté	-12.9575
▁Bithynie	-12.9575
▁Bonabéri	-12.9575
▁Boukadoum	-12.9575
▁Byǎnyə	-12.9575
▁CIRCB	-12.9575
▁CONFIDEN	-12.9575
▁COURRIER	-12.9575
▁Camerounlink	-12.9575
▁Cenchrées	-12.9575
▁Comptabilité	-12.9575
▁Conducteur	-12.9575
▁Corinthiens	-12.9575
▁Crispus	-12.9575
▁Créateur	-12.9575
▁Cyrénéen	-12.9575
▁DWƆꞋC	-12.9575
▁Dalmati	-12.9575
▁Devine	-12.9575
▁Dimak	-12.9575
▁Dschang	-12.9575
▁Dubaï	-12.9575
▁Déclar	-12.9575
▁Déjà	-12.9575
▁Efrata	-12.9575
▁Eleazar	-12.9575
▁Eliud	-12.9575
▁Envoyé	-12.9575
▁Escalier	-12.9575
▁Etiopia	-12.9575
▁Ezekias	-12.9575
▁FNSC	-12.9575
▁Filadɛlfia	-12.9575
▁Finaŋs	-12.9575
▁Finlandaise	-12.9575
▁GRAND	-12.9575
▁Gabriel	-12.9575
▁Gapriya	-12.9575
▁Garua	-12.9575
▁Genezarɛt	-12.9575
▁Gethsémané	-12.9575
▁Hellénistes	-12.9575
▁Heroes	-12.9575
▁Humaines	-12.9575
▁HÂNTƆ	-12.9575
▁International	-12.9575
▁Joakim	-12.9575
▁Joatham	-12.9575
▁Joram	-12.9575
▁Josaphat	-12.9575
▁Josias	-12.9575
▁Josué	-12.9575
▁Joël	-12.9575
▁Jugez	-12.9575
▁Kadhaf	-12.9575
▁Kamerûn	-12.9575
▁Kondengui	-12.9575
▁Kuseri	-12.9575
▁Kwyəpnyə	-12.9575
▁Kwǐshyə	-12.9575
▁Kɛnkrea	-12.9575
▁Likonya	-12.9575
▁Lydie	-12.9575
▁Législat	-12.9575
▁MBN	-12.9575
▁Magistrat	-12.9575
▁Matiasi	-12.9575
▁Matthan	-12.9575
▁Matthias	-12.9575
▁Melchi	-12.9575
▁Mesopotamia	-12.9575
▁Militaire	-12.9575
▁Mireille	-12.9575
▁Mnason	-12.9575
▁Mougnol	-12.9575
▁Mvomeka	-12.9575
▁Mystère	-12.9575
▁NAZA	-12.9575
▁Naaman	-12.9575
▁Nicolaïtes	-12.9575
▁Nikolaista	-12.9575
▁Ninivites	-12.9575
▁Nolenklatura	-12.9575
▁Ogwisto	-12.9575
▁Olembé	-12.9575
▁Onesiforo	-12.9575
▁Organis	-12.9575
▁PRO	-12.9575
▁Pareillement	-12.9575
▁Patmos	-12.9575
▁Patrobas	-12.9575
▁Permanent	-12.9575
▁Phœ	-12.9575
▁Pisidia	-12.9575
▁Pisidie	-12.9575
▁Publique	-12.9575
▁Publius	-12.9575
▁Pǐŋnthʉm	-12.9575
▁Rabuni	-12.9575
▁Rostand	-12.9575
▁SECRETAIRE	-12.9575
▁SEIGNEUR	-12.9575
▁Sadɔk	-12.9575
▁Scribes	-12.9575
▁Smirna	-12.9575
▁Sostɛnə	-12.9575
▁Territoriale	-12.9575
▁Tertullus	-12.9575
▁Tertulo	-12.9575
▁Thaddée	-12.9575
▁Thessaloniciens	-12.9575
▁Touadéra	-12.9575
▁Tâmbɛ	-12.9575
▁URGENT	-12.9575
▁VIP	-12.9575
▁Yosafat	-12.9575
▁Yozia	-12.9575
▁Yustos	-12.9575
▁Zʉs	-12.9575
▁ambazoniens	-12.9575
▁amorcent	-12.9575
▁appréhendé	-12.9575
▁apprêt	-12.9575
▁arrosé	-12.9575
▁artificieu	-12.9575
▁asservis	-12.9575
▁attesté	-12.9575
▁attriste	-12.9575
▁atténuantes	-12.9575
▁autorisé	-12.9575
▁avortement	-12.9575
▁baisser	-12.9575
▁banquier	-12.9575
▁bapbǎp	-12.9575
▁bavarde	-12.9575
▁bienveillance	-12.9575
▁bouclée	-12.9575
▁capturé	-12.9575
▁caractéris	-12.9575
▁catégorie	-12.9575
▁ceignit	-12.9575
▁chardons	-12.9575
▁charpentier	-12.9575
▁chichement	-12.9575
▁chrétien	-12.9575
▁chèvre	-12.9575
‘	-13.9514
Ǔ	-13.9575
^	-13.9575
·	-13.9575
Ç	-13.9575
Î	-13.9575
Ò	-13.9575
Ó	-13.9575
×	-13.9575
Ø	-13.9575
Û	-13.9575
ø	-13.9575
Œ	-13.9575
š	-13.9575
̣	-13.9575
ḱ	-13.9575
“	-13.9575
”	-13.9575
ẅ	-13.9575
–	-15.1736
Ì	-15.1737
>	-15.1738
Í	-15.1739
«	-15.174
ç	-15.1741
Q	-15.1742
R	-15.1743
L	-15.1744
